{
  "version": "1.0",
  "truncation": null,
  "padding": null,
  "added_tokens": [
    {
      "id": 0,
      "content": "<pad>",
      "single_word": false,
      "lstrip": false,
      "rstrip": false,
      "normalized": false,
      "special": true
    },
    {
      "id": 1,
      "content": "<s>",
      "single_word": false,
      "lstrip": false,
      "rstrip": false,
      "normalized": false,
      "special": true
    },
    {
      "id": 2,
      "content": "</s>",
      "single_word": false,
      "lstrip": false,
      "rstrip": false,
      "normalized": false,
      "special": true
    },
    {
      "id": 3,
      "content": "<unk>",
      "single_word": false,
      "lstrip": false,
      "rstrip": false,
      "normalized": false,
      "special": true
    },
    {
      "id": 4,
      "content": "<mask>",
      "single_word": false,
      "lstrip": false,
      "rstrip": false,
      "normalized": false,
      "special": true
    }
  ],
  "normalizer": {
    "type": "NFKC"
  },
  "pre_tokenizer": {
    "type": "UnicodeScripts"
  },
  "post_processor": {
    "type": "TemplateProcessing",
    "single": [
      {
        "SpecialToken": {
          "id": "<s>",
          "type_id": 0
        }
      },
      {
        "Sequence": {
          "id": "A",
          "type_id": 0
        }
      },
      {
        "SpecialToken": {
          "id": "</s>",
          "type_id": 0
        }
      }
    ],
    "pair": [
      {
        "Sequence": {
          "id": "A",
          "type_id": 0
        }
      },
      {
        "Sequence": {
          "id": "B",
          "type_id": 1
        }
      }
    ],
    "special_tokens": {
      "</s>": {
        "id": "</s>",
        "ids": [
          2
        ],
        "tokens": [
          "</s>"
        ]
      },
      "<s>": {
        "id": "<s>",
        "ids": [
          1
        ],
        "tokens": [
          "<s>"
        ]
      }
    }
  },
  "decoder": {
    "type": "Metaspace",
    "replacement": "▁",
    "prepend_scheme": "always",
    "split": true
  },
  "model": {
    "type": "Unigram",
    "unk_id": 3,
    "vocab": [
      [
        "<pad>",
        0.0
      ],
      [
        "<s>",
        0.0
      ],
      [
        "</s>",
        0.0
      ],
      [
        "<unk>",
        0.0
      ],
      [
        "<mask>",
        0.0
      ],
      [
        "、",
        -3.2906663852120346
      ],
      [
        "の",
        -3.4398109492500843
      ],
      [
        "。",
        -3.784423879777446
      ],
      [
        "を",
        -4.055672654261388
      ],
      [
        "は",
        -4.107535812186388
      ],
      [
        "に",
        -4.168430478495949
      ],
      [
        "が",
        -4.25710320384594
      ],
      [
        "・",
        -4.742374154390946
      ],
      [
        "で",
        -4.760145736807186
      ],
      [
        "年",
        -4.77927739794184
      ],
      [
        "と",
        -4.7861764354955945
      ],
      [
        ")",
        -4.949218154395444
      ],
      [
        "(",
        -4.96919511555498
      ],
      [
        " ",
        -5.032404420338008
      ],
      [
        "した",
        -5.2716880402205355
      ],
      [
        "_",
        -5.314040998603383
      ],
      [
        "し",
        -5.438321263376482
      ],
      [
        "ス",
        -5.449277004048199
      ],
      [
        "」",
        -5.513156492678343
      ],
      [
        "S",
        -5.547669269901984
      ],
      [
        "も",
        -5.555701318945035
      ],
      [
        "「",
        -5.563367974385768
      ],
      [
        "月",
        -5.572849976138858
      ],
      [
        "T",
        -5.673356259693302
      ],
      [
        "する",
        -5.696503788943126
      ],
      [
        "い",
        -5.707376209477726
      ],
      [
        "から",
        -5.767126610736595
      ],
      [
        "1",
        -5.774863526744165
      ],
      [
        "2",
        -5.816172285021324
      ],
      [
        "や",
        -5.855215065535745
      ],
      [
        "た",
        -5.927490304740456
      ],
      [
        "ト",
        -5.958391936112028
      ],
      [
        "3",
        -5.958664867881087
      ],
      [
        "る",
        -5.964395001708768
      ],
      [
        "である",
        -5.971904174851392
      ],
      [
        "日",
        -6.0137297239734675
      ],
      [
        "な",
        -6.018694293671894
      ],
      [
        "された",
        -6.040162286588625
      ],
      [
        "ル",
        -6.041423228321854
      ],
      [
        "STAR",
        -6.0480170848046555
      ],
      [
        "ECTION",
        -6.0493439471169985
      ],
      [
        "として",
        -6.05186825615257
      ],
      [
        "4",
        -6.088987804077048
      ],
      [
        "ア",
        -6.101527946087135
      ],
      [
        "り",
        -6.103121704488686
      ],
      [
        "。_",
        -6.129166522125674
      ],
      [
        "ド",
        -6.151394808758916
      ],
      [
        "ク",
        -6.151746233357915
      ],
      [
        "5",
        -6.174635998570853
      ],
      [
        "か",
        -6.226613162466121
      ],
      [
        "大",
        -6.230772684889159
      ],
      [
        "では",
        -6.235482265640563
      ],
      [
        "人",
        -6.269050729804732
      ],
      [
        "6",
        -6.299552344765301
      ],
      [
        "く",
        -6.326102533553177
      ],
      [
        "イ",
        -6.336884263338122
      ],
      [
        "『",
        -6.344515733005316
      ],
      [
        "リ",
        -6.350997581172134
      ],
      [
        "』",
        -6.358407751208812
      ],
      [
        "て",
        -6.372663232665907
      ],
      [
        "ン",
        -6.380731675603235
      ],
      [
        "ラ",
        -6.440787529692759
      ],
      [
        "8",
        -6.440938340232563
      ],
      [
        "この",
        -6.443407323034354
      ],
      [
        "7",
        -6.446213525218514
      ],
      [
        "して",
        -6.454172595135624
      ],
      [
        "マ",
        -6.458455745383599
      ],
      [
        "19",
        -6.458834923769382
      ],
      [
        "9",
        -6.463124963277345
      ],
      [
        "中",
        -6.488387143887792
      ],
      [
        "ロ",
        -6.526071893965474
      ],
      [
        "一",
        -6.5459265730741105
      ],
      [
        "上",
        -6.5488353858255515
      ],
      [
        "には",
        -6.564693083565805
      ],
      [
        "ー",
        -6.566176254356378
      ],
      [
        "長",
        -6.579874895311091
      ],
      [
        "A",
        -6.5861891542823
      ],
      [
        "している",
        -6.5904963998837705
      ],
      [
        "ム",
        -6.612736222504578
      ],
      [
        "という",
        -6.61467346758543
      ],
      [
        "本",
        -6.619965303227129
      ],
      [
        "き",
        -6.621457580502142
      ],
      [
        "カ",
        -6.623863792595781
      ],
      [
        "国",
        -6.653344491827946
      ],
      [
        "った",
        -6.659120852994112
      ],
      [
        "その",
        -6.6650355340799745
      ],
      [
        "コ",
        -6.670739177730853
      ],
      [
        "戦",
        -6.673507054555598
      ],
      [
        "地",
        -6.677455783768185
      ],
      [
        "つ",
        -6.688928226575408
      ],
      [
        "者",
        -6.695478898895468
      ],
      [
        "う",
        -6.705488338183171
      ],
      [
        "同",
        -6.706747758158162
      ],
      [
        "山",
        -6.72402209657098
      ],
      [
        "また",
        -6.73301070285031
      ],
      [
        "され",
        -6.747844498349185
      ],
      [
        "ズ",
        -6.75188855375977
      ],
      [
        "後",
        -6.759169988654968
      ],
      [
        "ら",
        -6.763634047542114
      ],
      [
        "年に",
        -6.78433423874586
      ],
      [
        "C",
        -6.813900313292951
      ],
      [
        "フ",
        -6.816382167752366
      ],
      [
        "め",
        -6.8200555821714275
      ],
      [
        "出",
        -6.838346378800132
      ],
      [
        "レ",
        -6.838875171176069
      ],
      [
        "子",
        -6.844598885524281
      ],
      [
        "第",
        -6.851269689511632
      ],
      [
        "o",
        -6.8527604744038975
      ],
      [
        "エ",
        -6.85551049606495
      ],
      [
        "タ",
        -6.8623835615193975
      ],
      [
        "田",
        -6.862567623561354
      ],
      [
        "など",
        -6.864863487228989
      ],
      [
        "-",
        -6.871703876758108
      ],
      [
        "10",
        -6.872635301393146
      ],
      [
        "行",
        -6.883881992470588
      ],
      [
        "M",
        -6.884433981707199
      ],
      [
        "部",
        -6.886723441268421
      ],
      [
        "日本",
        -6.896011713189321
      ],
      [
        "学",
        -6.911767363291517
      ],
      [
        "ミ",
        -6.91248586693238
      ],
      [
        "わ",
        -6.912814161050397
      ],
      [
        "下",
        -6.917039297546889
      ],
      [
        "市",
        -6.9235063320967125
      ],
      [
        "ッ",
        -6.927735491957272
      ],
      [
        "ナ",
        -6.928197894300231
      ],
      [
        "名",
        -6.9284153788289835
      ],
      [
        "用",
        -6.933954484683616
      ],
      [
        "P",
        -6.941169206667011
      ],
      [
        "シ",
        -6.945828309115608
      ],
      [
        "リー",
        -6.946310265793583
      ],
      [
        "生",
        -6.952127128747829
      ],
      [
        "川",
        -6.956418420217716
      ],
      [
        "体",
        -6.957474189157233
      ],
      [
        "ブ",
        -6.963675954532679
      ],
      [
        "家",
        -6.969550100007691
      ],
      [
        "e",
        -6.9745843236852245
      ],
      [
        "ている",
        -6.977077257031215
      ],
      [
        "え",
        -6.993699840664927
      ],
      [
        "される",
        -6.995981289055154
      ],
      [
        "前",
        -6.9976473883778
      ],
      [
        "回",
        -7.014360627159675
      ],
      [
        "ない",
        -7.014691021533281
      ],
      [
        "m",
        -7.029588513089607
      ],
      [
        "手",
        -7.035246120436225
      ],
      [
        "す",
        -7.036001467110182
      ],
      [
        "高",
        -7.037571116303242
      ],
      [
        "会",
        -7.043490310933812
      ],
      [
        "数",
        -7.053963267070751
      ],
      [
        "軍",
        -7.054644874464328
      ],
      [
        "って",
        -7.061564607294143
      ],
      [
        "されている",
        -7.0621094157802276
      ],
      [
        "作",
        -7.0681450313648515
      ],
      [
        "分",
        -7.0688480477178075
      ],
      [
        "D",
        -7.074405800369142
      ],
      [
        "グ",
        -7.080677209616699
      ],
      [
        "E",
        -7.085959777854697
      ],
      [
        "ウ",
        -7.086571561607753
      ],
      [
        "新",
        -7.0871039314425985
      ],
      [
        "み",
        -7.095790670131539
      ],
      [
        "発",
        -7.098382077236014
      ],
      [
        "となった",
        -7.1007512295818795
      ],
      [
        "大学",
        -7.107759910303582
      ],
      [
        ".",
        -7.111719224738858
      ],
      [
        "O",
        -7.111876028089505
      ],
      [
        "ニ",
        -7.117843329386044
      ],
      [
        "オ",
        -7.118183474241093
      ],
      [
        "け",
        -7.123716607590712
      ],
      [
        "力",
        -7.124183783929492
      ],
      [
        "県",
        -7.128822396009642
      ],
      [
        "法",
        -7.136665894590831
      ],
      [
        "水",
        -7.136931952067531
      ],
      [
        "まで",
        -7.139441876908007
      ],
      [
        "位",
        -7.141561731099609
      ],
      [
        "線",
        -7.145206023392314
      ],
      [
        "化",
        -7.145565727570789
      ],
      [
        "スト",
        -7.1524464299226445
      ],
      [
        "B",
        -7.1526435772274315
      ],
      [
        "さ",
        -7.156313536367659
      ],
      [
        "バ",
        -7.160382269633251
      ],
      [
        "i",
        -7.16302586183914
      ],
      [
        "機",
        -7.164926959401562
      ],
      [
        "キ",
        -7.169783768385315
      ],
      [
        "12",
        -7.175860459741214
      ],
      [
        "サ",
        -7.1771816425456585
      ],
      [
        "日に",
        -7.179823296297599
      ],
      [
        "ター",
        -7.184165654991327
      ],
      [
        "合",
        -7.190579188043303
      ],
      [
        "れ",
        -7.194795832666525
      ],
      [
        "性",
        -7.198975732342962
      ],
      [
        "パ",
        -7.2016934488956394
      ],
      [
        "s",
        -7.206457217621212
      ],
      [
        "ため",
        -7.209061942134753
      ],
      [
        "ジ",
        -7.215442017333013
      ],
      [
        "テ",
        -7.21673116653198
      ],
      [
        "L",
        -7.218081190725666
      ],
      [
        "東",
        -7.226168713647866
      ],
      [
        "北",
        -7.229549278096771
      ],
      [
        "主",
        -7.229697886674142
      ],
      [
        "ま",
        -7.230184075423386
      ],
      [
        "じ",
        -7.230958327369223
      ],
      [
        "三",
        -7.242389897296981
      ],
      [
        "事",
        -7.2449996419131
      ],
      [
        "によって",
        -7.252404349306127
      ],
      [
        "実",
        -7.25748468598689
      ],
      [
        "ん",
        -7.264918389035602
      ],
      [
        "小",
        -7.26768388795284
      ],
      [
        "所",
        -7.273779397588504
      ],
      [
        "チ",
        -7.277902306197316
      ],
      [
        "であった",
        -7.278095460859888
      ],
      [
        "プ",
        -7.280745529521932
      ],
      [
        "入",
        -7.280994494149937
      ],
      [
        "もの",
        -7.281669310033324
      ],
      [
        "外",
        -7.281859429579365
      ],
      [
        "がある",
        -7.287023921470006
      ],
      [
        "11",
        -7.28810846525821
      ],
      [
        "ット",
        -7.297073180788674
      ],
      [
        "内",
        -7.301337847992116
      ],
      [
        "社",
        -7.303253815152699
      ],
      [
        "a",
        -7.306031671245343
      ],
      [
        "R",
        -7.307757206022334
      ],
      [
        "による",
        -7.308885931550627
      ],
      [
        "I",
        -7.3094911492587915
      ],
      [
        "へ",
        -7.311662994829133
      ],
      [
        "していた",
        -7.311864407798785
      ],
      [
        "により",
        -7.314554768131483
      ],
      [
        "立",
        -7.315767140853639
      ],
      [
        "見",
        -7.316856563121473
      ],
      [
        "面",
        -7.3176974233665355
      ],
      [
        "いた",
        -7.319522326697198
      ],
      [
        "c",
        -7.321471456114313
      ],
      [
        "こ",
        -7.323423431579373
      ],
      [
        "車",
        -7.324662406029978
      ],
      [
        "的な",
        -7.327481066627328
      ],
      [
        "定",
        -7.329744919646473
      ],
      [
        "ディ",
        -7.332826146476615
      ],
      [
        "町",
        -7.333639062005577
      ],
      [
        "ノ",
        -7.333758308669527
      ],
      [
        "ール",
        -7.340018884173931
      ],
      [
        "G",
        -7.341165883945845
      ],
      [
        "ハ",
        -7.342473404425803
      ],
      [
        "目",
        -7.344292457880718
      ],
      [
        "的",
        -7.354314121490825
      ],
      [
        "西",
        -7.362823495417267
      ],
      [
        "F",
        -7.366076345388981
      ],
      [
        "方",
        -7.366894314133447
      ],
      [
        "イン",
        -7.368345653961709
      ],
      [
        "島",
        -7.372522186260769
      ],
      [
        "間",
        -7.3726576292743236
      ],
      [
        "場",
        -7.373673765023398
      ],
      [
        "南",
        -7.378726882463415
      ],
      [
        "原",
        -7.381851831744761
      ],
      [
        "道",
        -7.382385985560788
      ],
      [
        "書",
        -7.3936561098502995
      ],
      [
        "であり",
        -7.39751974642779
      ],
      [
        "駅",
        -7.405425897539317
      ],
      [
        "p",
        -7.40631774730466
      ],
      [
        "全",
        -7.411007895830176
      ],
      [
        "度",
        -7.415929570205236
      ],
      [
        "正",
        -7.417927948459461
      ],
      [
        "王",
        -7.424062093847617
      ],
      [
        "野",
        -7.424532257759029
      ],
      [
        "こと",
        -7.425562473550988
      ],
      [
        "ネ",
        -7.426607311706926
      ],
      [
        "メ",
        -7.436444911864669
      ],
      [
        "モ",
        -7.4390380859821725
      ],
      [
        "ティ",
        -7.441539433772913
      ],
      [
        "期",
        -7.444297703907246
      ],
      [
        "デ",
        -7.444867045017125
      ],
      [
        "州",
        -7.448197370977862
      ],
      [
        "語",
        -7.455222429577047
      ],
      [
        "セ",
        -7.45526014636247
      ],
      [
        "N",
        -7.455710323223174
      ],
      [
        "初",
        -7.456171625283616
      ],
      [
        "元",
        -7.457519253002298
      ],
      [
        "時",
        -7.459674124904343
      ],
      [
        "バー",
        -7.460467613179201
      ],
      [
        "物",
        -7.469437192453386
      ],
      [
        "現",
        -7.472486124695326
      ],
      [
        "ビ",
        -7.4728191156719195
      ],
      [
        "金",
        -7.474313859041285
      ],
      [
        "進",
        -7.476941910855393
      ],
      [
        "点",
        -7.4815263888656585
      ],
      [
        "られた",
        -7.483368054624661
      ],
      [
        "号",
        -7.499818805042501
      ],
      [
        "お",
        -7.500706542648336
      ],
      [
        "代",
        -7.502454233692731
      ],
      [
        "より",
        -7.503187634316097
      ],
      [
        "ツ",
        -7.507757313981214
      ],
      [
        "不",
        -7.508910981012297
      ],
      [
        "となる",
        -7.514088891507454
      ],
      [
        "海",
        -7.515582273275914
      ],
      [
        "その後",
        -7.51664999312476
      ],
      [
        "W",
        -7.521083277921196
      ],
      [
        "明",
        -7.524588018652725
      ],
      [
        "レー",
        -7.524590750896694
      ],
      [
        "あ",
        -7.524795618206239
      ],
      [
        "18",
        -7.526732258272807
      ],
      [
        "u",
        -7.529580600255953
      ],
      [
        "ック",
        -7.539721881535192
      ],
      [
        "、「",
        -7.54400763401949
      ],
      [
        "への",
        -7.54509148158205
      ],
      [
        "動",
        -7.553763130817272
      ],
      [
        "重",
        -7.554070561108398
      ],
      [
        "ダ",
        -7.555806463970804
      ],
      [
        "しかし",
        -7.558066075983518
      ],
      [
        "神",
        -7.558576664509808
      ],
      [
        "0",
        -7.558787715190693
      ],
      [
        "気",
        -7.571157614847921
      ],
      [
        "だった",
        -7.5718807444036
      ],
      [
        "ラン",
        -7.571888827423248
      ],
      [
        "U",
        -7.574137822219733
      ],
      [
        "成",
        -7.575067274317826
      ],
      [
        "文",
        -7.577276424718155
      ],
      [
        "20",
        -7.577494751093852
      ],
      [
        "式",
        -7.579384672006016
      ],
      [
        "H",
        -7.583098550254595
      ],
      [
        "それ",
        -7.5868543948355445
      ],
      [
        "公",
        -7.591396270873446
      ],
      [
        "せ",
        -7.592942650142254
      ],
      [
        "ガ",
        -7.593650257921711
      ],
      [
        "世",
        -7.596665866466886
      ],
      [
        "ボ",
        -7.597318570111927
      ],
      [
        "なかった",
        -7.607001193890595
      ],
      [
        "t",
        -7.609224106231498
      ],
      [
        "17",
        -7.6105220216318905
      ],
      [
        "側",
        -7.613218838661902
      ],
      [
        "最",
        -7.613867717554337
      ],
      [
        "d",
        -7.614106086270082
      ],
      [
        "次",
        -7.615099387944879
      ],
      [
        "V",
        -7.61702528118718
      ],
      [
        "でも",
        -7.6202327783004815
      ],
      [
        "n",
        -7.627849933121503
      ],
      [
        "村",
        -7.629650735460391
      ],
      [
        "通",
        -7.629996184953622
      ],
      [
        "ず",
        -7.634295831148293
      ],
      [
        "集",
        -7.639155013940673
      ],
      [
        "られ",
        -7.6420476574855165
      ],
      [
        "員",
        -7.643427041080232
      ],
      [
        "K",
        -7.652267471755421
      ],
      [
        "天",
        -7.660615540520936
      ],
      [
        "平",
        -7.661830956341284
      ],
      [
        "無",
        -7.662653453027378
      ],
      [
        "区",
        -7.668877501018635
      ],
      [
        "っ",
        -7.669300019299284
      ],
      [
        "ラー",
        -7.672379271553892
      ],
      [
        "言",
        -7.678979004284729
      ],
      [
        "ていた",
        -7.679285379418877
      ],
      [
        "石",
        -7.68274573534088
      ],
      [
        "理",
        -7.683277677618506
      ],
      [
        "にも",
        -7.684795743393961
      ],
      [
        "知",
        -7.686905144734345
      ],
      [
        "着",
        -7.689455557229854
      ],
      [
        "ロー",
        -7.689623138319487
      ],
      [
        "b",
        -7.689823012628347
      ],
      [
        "当",
        -7.690245066576903
      ],
      [
        "ペ",
        -7.69188837424829
      ],
      [
        "アン",
        -7.692324442914943
      ],
      [
        "k",
        -7.693261224420199
      ],
      [
        "城",
        -7.6938924096537225
      ],
      [
        "ば",
        -7.697900801576756
      ],
      [
        "的に",
        -7.709887553813315
      ],
      [
        "近",
        -7.71105365468396
      ],
      [
        "流",
        -7.7172785721088015
      ],
      [
        "世界",
        -7.719533071157716
      ],
      [
        "ヒ",
        -7.721943340998035
      ],
      [
        "自",
        -7.726129032882806
      ],
      [
        "15",
        -7.726950576990136
      ],
      [
        "役",
        -7.728566975834463
      ],
      [
        "マン",
        -7.730338530416617
      ],
      [
        "務",
        -7.731139929516585
      ],
      [
        "ライ",
        -7.73380071293224
      ],
      [
        "昭和",
        -7.735171562680078
      ],
      [
        "有",
        -7.7363297973496685
      ],
      [
        "だ",
        -7.736408172031718
      ],
      [
        "g",
        -7.73836936295241
      ],
      [
        "直",
        -7.739403243069866
      ],
      [
        "形",
        -7.739619813229131
      ],
      [
        "教",
        -7.74000561453108
      ],
      [
        "放送",
        -7.740530080006804
      ],
      [
        "J",
        -7.740590911465906
      ],
      [
        "団",
        -7.742898964176087
      ],
      [
        "約",
        -7.7444937041739905
      ],
      [
        "場合",
        -7.748103378324686
      ],
      [
        "コン",
        -7.748810320182516
      ],
      [
        "後に",
        -7.753477293080415
      ],
      [
        "信",
        -7.758352618177108
      ],
      [
        "ヤ",
        -7.760481446082174
      ],
      [
        "二",
        -7.760989927442358
      ],
      [
        "種",
        -7.761635310141369
      ],
      [
        "作品",
        -7.763562408946715
      ],
      [
        "型",
        -7.769479663833957
      ],
      [
        "木",
        -7.776893981794018
      ],
      [
        "れた",
        -7.778339313438165
      ],
      [
        "において",
        -7.77966011761702
      ],
      [
        "民",
        -7.7813366481909725
      ],
      [
        "続",
        -7.785634567440601
      ],
      [
        "多",
        -7.787047996464777
      ],
      [
        "とも",
        -7.787242954981185
      ],
      [
        "アメリカ",
        -7.787792360042447
      ],
      [
        "16",
        -7.798287745545512
      ],
      [
        "活動",
        -7.799684022359996
      ],
      [
        "月に",
        -7.808026449311392
      ],
      [
        "来",
        -7.811007933447858
      ],
      [
        "30",
        -7.811797964439087
      ],
      [
        "などの",
        -7.813714984127941
      ],
      [
        "官",
        -7.813965897183413
      ],
      [
        "げ",
        -7.822460382439665
      ],
      [
        "業",
        -7.822784103399739
      ],
      [
        "和",
        -7.823855556579376
      ],
      [
        "ゴ",
        -7.8240871139264385
      ],
      [
        "ソ",
        -7.825328935092767
      ],
      [
        "ベ",
        -7.828028012761941
      ],
      [
        "取",
        -7.828582423586319
      ],
      [
        "ち",
        -7.830945253663886
      ],
      [
        "相",
        -7.831102760143818
      ],
      [
        "使",
        -7.8344526267497425
      ],
      [
        ":",
        -7.839986668885334
      ],
      [
        "先",
        -7.847154637070558
      ],
      [
        "ピ",
        -7.848261026733187
      ],
      [
        "曲",
        -7.848500639808366
      ],
      [
        "ワ",
        -7.853855144544811
      ],
      [
        "h",
        -7.85470901027395
      ],
      [
        "様",
        -7.857999537458145
      ],
      [
        "e ",
        -7.858800498353942
      ],
      [
        "リア",
        -7.859385080955729
      ],
      [
        "任",
        -7.860256363015223
      ],
      [
        "アル",
        -7.865233690149351
      ],
      [
        "記",
        -7.867796690805832
      ],
      [
        "馬",
        -7.869762606297858
      ],
      [
        "別",
        -7.870267143024806
      ],
      [
        "院",
        -7.871626614587981
      ],
      [
        "開",
        -7.872851990873768
      ],
      [
        "々",
        -7.873590467146542
      ],
      [
        "00",
        -7.875578122716563
      ],
      [
        "っている",
        -7.876106793064574
      ],
      [
        "われ",
        -7.876765110074272
      ],
      [
        "再",
        -7.876923279777303
      ],
      [
        "隊",
        -7.8879374250856085
      ],
      [
        "権",
        -7.889270914070396
      ],
      [
        "電",
        -7.894088596056763
      ],
      [
        ",",
        -7.894770268677824
      ],
      [
        "保",
        -7.895427564053346
      ],
      [
        "達",
        -7.895582534092785
      ],
      [
        "両",
        -7.896483992349392
      ],
      [
        "東京",
        -7.8982544589575845
      ],
      [
        "/",
        -7.900272040248776
      ],
      [
        "フィ",
        -7.9089004110392676
      ],
      [
        "命",
        -7.909563674460355
      ],
      [
        "ケ",
        -7.914104468538444
      ],
      [
        "安",
        -7.914636154411777
      ],
      [
        "起",
        -7.918688829125678
      ],
      [
        "ギ",
        -7.920498082940947
      ],
      [
        "船",
        -7.921161934503388
      ],
      [
        "口",
        -7.922598564587647
      ],
      [
        ") ",
        -7.92338327000518
      ],
      [
        "制",
        -7.924583234795186
      ],
      [
        "使用",
        -7.928041238218286
      ],
      [
        "局",
        -7.928721701591341
      ],
      [
        "リン",
        -7.930845539596838
      ],
      [
        "14",
        -7.934044622198325
      ],
      [
        "撃",
        -7.936003052986695
      ],
      [
        "特",
        -7.936622484551046
      ],
      [
        "映画",
        -7.938544010263035
      ],
      [
        "産",
        -7.938871204597833
      ],
      [
        "年には",
        -7.939034926376875
      ],
      [
        "となり",
        -7.941574985101743
      ],
      [
        "歳",
        -7.942627674866769
      ],
      [
        "レン",
        -7.945298345974882
      ],
      [
        "ダー",
        -7.9458453998163545
      ],
      [
        "等",
        -7.947382866944219
      ],
      [
        "よう",
        -7.947582593254149
      ],
      [
        "連",
        -7.950258690202823
      ],
      [
        "郡",
        -7.95140315287183
      ],
      [
        "意",
        -7.952820030262817
      ],
      [
        "える",
        -7.953099168132994
      ],
      [
        "との",
        -7.958216691013783
      ],
      [
        "歌",
        -7.9661172436044705
      ],
      [
        "む",
        -7.966800214181788
      ],
      [
        "退",
        -7.967505755003989
      ],
      [
        "研究",
        -7.968281666166149
      ],
      [
        "er",
        -7.9688332558058
      ],
      [
        "話",
        -7.969052465134206
      ],
      [
        "与",
        -7.969395130181697
      ],
      [
        "総",
        -7.970854009025173
      ],
      [
        "死",
        -7.971400876788758
      ],
      [
        "同年",
        -7.976789840733243
      ],
      [
        "空",
        -7.979684098331807
      ],
      [
        "得",
        -7.9830902115189915
      ],
      [
        "宮",
        -7.984652086376061
      ],
      [
        "党",
        -7.986547290127239
      ],
      [
        "頭",
        -7.986727128266335
      ],
      [
        "色",
        -7.987661066150038
      ],
      [
        "f",
        -7.989021549091724
      ],
      [
        "プロ",
        -7.990552808259432
      ],
      [
        "13",
        -7.9907010648784595
      ],
      [
        "義",
        -7.994042163018211
      ],
      [
        "土",
        -7.994500815904409
      ],
      [
        "年の",
        -7.995290111681694
      ],
      [
        "ヘ",
        -7.999809061543258
      ],
      [
        "たち",
        -8.000319417962304
      ],
      [
        "武",
        -8.000834702289083
      ],
      [
        "広",
        -8.00141873642228
      ],
      [
        "y",
        -8.004388168645164
      ],
      [
        "られる",
        -8.006033899825063
      ],
      [
        "対",
        -8.008569016112796
      ],
      [
        "番組",
        -8.015741671694176
      ],
      [
        "んだ",
        -8.015940056165231
      ],
      [
        "になった",
        -8.016372255659556
      ],
      [
        "ザ",
        -8.017010030882393
      ],
      [
        "台",
        -8.017157665891766
      ],
      [
        "代表",
        -8.017418105764719
      ],
      [
        "兵",
        -8.019429922713528
      ],
      [
        "ヴィ",
        -8.019732229284692
      ],
      [
        "ること",
        -8.021009949591924
      ],
      [
        "in",
        -8.022697869587985
      ],
      [
        "番",
        -8.024171932533616
      ],
      [
        "勝",
        -8.025345194299222
      ],
      [
        "賞",
        -8.029666172427177
      ],
      [
        "なく",
        -8.03107683627367
      ],
      [
        "すること",
        -8.032519539757855
      ],
      [
        "人の",
        -8.034861548165894
      ],
      [
        "l",
        -8.03524221391154
      ],
      [
        "パー",
        -8.036221681240253
      ],
      [
        "シュ",
        -8.039636085979366
      ],
      [
        "サン",
        -8.039891559361442
      ],
      [
        "士",
        -8.04206689599097
      ],
      [
        "職",
        -8.043607566641953
      ],
      [
        "変",
        -8.044320422377151
      ],
      [
        "画",
        -8.044368301611645
      ],
      [
        "加",
        -8.045463874235963
      ],
      [
        "館",
        -8.046609019777824
      ],
      [
        "各",
        -8.051599857479763
      ],
      [
        "とする",
        -8.053679173232048
      ],
      [
        "氏",
        -8.05846089141471
      ],
      [
        "時代",
        -8.059332184864845
      ],
      [
        "改",
        -8.060815688716593
      ],
      [
        "朝",
        -8.06200149077048
      ],
      [
        "政",
        -8.063513464420916
      ],
      [
        "工",
        -8.064926846971678
      ],
      [
        "系",
        -8.065629495592692
      ],
      [
        "格",
        -8.067992094059376
      ],
      [
        "古",
        -8.069461615166992
      ],
      [
        "級",
        -8.071116390289564
      ],
      [
        "および",
        -8.072029021790303
      ],
      [
        "について",
        -8.07611165935043
      ],
      [
        "心",
        -8.076335933401477
      ],
      [
        "結",
        -8.077529873024393
      ],
      [
        "決",
        -8.077786797275577
      ],
      [
        "解",
        -8.077939527295909
      ],
      [
        "チーム",
        -8.080355505578845
      ],
      [
        "ーン",
        -8.080901243938905
      ],
      [
        "r",
        -8.082633592563944
      ],
      [
        "科",
        -8.084037174094309
      ],
      [
        "ポ",
        -8.084463107121561
      ],
      [
        "派",
        -8.084800504020487
      ],
      [
        "にある",
        -8.086333717615105
      ],
      [
        "開発",
        -8.091481860747088
      ],
      [
        "向",
        -8.091913679843948
      ],
      [
        "演",
        -8.093529297386715
      ],
      [
        "井",
        -8.096130332481366
      ],
      [
        "存在",
        -8.096261791127857
      ],
      [
        "選",
        -8.09683958799333
      ],
      [
        "年代",
        -8.099475341772266
      ],
      [
        "地域",
        -8.101411512882095
      ],
      [
        "カー",
        -8.101779540606719
      ],
      [
        "量",
        -8.10581026536166
      ],
      [
        "\"",
        -8.114274055197907
      ],
      [
        "表",
        -8.114870726851759
      ],
      [
        "ベル",
        -8.115577378511595
      ],
      [
        "松",
        -8.120805789277325
      ],
      [
        "ップ",
        -8.124120105910885
      ],
      [
        "さらに",
        -8.124373130330799
      ],
      [
        "テレビ",
        -8.125188991029782
      ],
      [
        "半",
        -8.127690522455454
      ],
      [
        "寺",
        -8.131344694933942
      ],
      [
        "なお",
        -8.132057898825567
      ],
      [
        "身",
        -8.132617927389825
      ],
      [
        "en",
        -8.136767388885707
      ],
      [
        "白",
        -8.136961379172345
      ],
      [
        "橋",
        -8.142869922292494
      ],
      [
        "現在",
        -8.143437888583547
      ],
      [
        "年から",
        -8.144207768009771
      ],
      [
        "強",
        -8.146202069490137
      ],
      [
        "組",
        -8.147273508143375
      ],
      [
        "店",
        -8.147326664273956
      ],
      [
        "されていた",
        -8.149036992730753
      ],
      [
        "めた",
        -8.14965495769245
      ],
      [
        "キャ",
        -8.151371315455997
      ],
      [
        "における",
        -8.155078160898805
      ],
      [
        "関係",
        -8.157617186556111
      ],
      [
        "ある",
        -8.158322266731052
      ],
      [
        "v",
        -8.158533535542752
      ],
      [
        "以降",
        -8.159398207678063
      ],
      [
        "- ",
        -8.16172175487343
      ],
      [
        "ション",
        -8.16181142875172
      ],
      [
        "に入",
        -8.162164563783504
      ],
      [
        "できる",
        -8.162417934022926
      ],
      [
        "ど",
        -8.16453815726787
      ],
      [
        "とは",
        -8.166159191888497
      ],
      [
        "藤",
        -8.166474669939769
      ],
      [
        "付",
        -8.16861900406942
      ],
      [
        "ソン",
        -8.168839317540362
      ],
      [
        "ドイツ",
        -8.169943571986913
      ],
      [
        "ar",
        -8.171248484334471
      ],
      [
        "び",
        -8.171290029799959
      ],
      [
        "試合",
        -8.171811689715987
      ],
      [
        "風",
        -8.171890937136185
      ],
      [
        "or",
        -8.172528841128768
      ],
      [
        "参加",
        -8.173665615989309
      ],
      [
        "ジェ",
        -8.175395393773805
      ],
      [
        "伝",
        -8.175671073891262
      ],
      [
        "光",
        -8.17676284549995
      ],
      [
        "ジャ",
        -8.179521470507298
      ],
      [
        "収",
        -8.180070510902786
      ],
      [
        "フェ",
        -8.180209784658771
      ],
      [
        "称",
        -8.180343747394817
      ],
      [
        "学校",
        -8.181456878132444
      ],
      [
        "装",
        -8.181517164873608
      ],
      [
        "論",
        -8.184726899307973
      ],
      [
        "屋",
        -8.18704489437375
      ],
      [
        "十",
        -8.189437946141233
      ],
      [
        "いて",
        -8.1901574763945
      ],
      [
        "スター",
        -8.190187732996907
      ],
      [
        "版",
        -8.190849707095042
      ],
      [
        "修",
        -8.191772414121672
      ],
      [
        "女",
        -8.19290029118292
      ],
      [
        "っていた",
        -8.193641012072579
      ],
      [
        "えた",
        -8.195906240593866
      ],
      [
        "ことを",
        -8.197803907893647
      ],
      [
        "関",
        -8.19850472198139
      ],
      [
        "on",
        -8.198650111415608
      ],
      [
        "音",
        -8.201506459896095
      ],
      [
        "以",
        -8.203271813834801
      ],
      [
        "シーズン",
        -8.20329337631903
      ],
      [
        "乗",
        -8.20428970407935
      ],
      [
        "ュ",
        -8.204315198883751
      ],
      [
        "マー",
        -8.204811727981035
      ],
      [
        "食",
        -8.205005087593456
      ],
      [
        "転",
        -8.205948770035933
      ],
      [
        ", ",
        -8.206442886083055
      ],
      [
        "ッド",
        -8.208717457890394
      ],
      [
        "an",
        -8.209608642767128
      ],
      [
        "親",
        -8.210179912546772
      ],
      [
        "反",
        -8.210613711996272
      ],
      [
        "ホ",
        -8.210718828502799
      ],
      [
        "リーグ",
        -8.213473265075951
      ],
      [
        "急",
        -8.21658299621457
      ],
      [
        "25",
        -8.21674716434148
      ],
      [
        "路",
        -8.217030601998445
      ],
      [
        "品",
        -8.217356962234993
      ],
      [
        "ニー",
        -8.22074229780896
      ],
      [
        "時間",
        -8.220889077778818
      ],
      [
        "大会",
        -8.221855785881035
      ],
      [
        "明治",
        -8.223860146416015
      ],
      [
        "トン",
        -8.224085548499717
      ],
      [
        "父",
        -8.225753392946656
      ],
      [
        "万",
        -8.225855808675124
      ],
      [
        "在",
        -8.226412269735741
      ],
      [
        "ぐ",
        -8.227329858607959
      ],
      [
        "例",
        -8.227573248597315
      ],
      [
        "残",
        -8.227667822487915
      ],
      [
        "める",
        -8.233246493285671
      ],
      [
        "しい",
        -8.235633857152791
      ],
      [
        "助",
        -8.236160426272507
      ],
      [
        "=",
        -8.238129876614652
      ],
      [
        "感",
        -8.238575128527247
      ],
      [
        "ナー",
        -8.23861417737311
      ],
      [
        "フランス",
        -8.243040945034513
      ],
      [
        "末",
        -8.243725813049872
      ],
      [
        "50",
        -8.24706209154583
      ],
      [
        "愛",
        -8.247538102675373
      ],
      [
        "議",
        -8.247920851095067
      ],
      [
        "米",
        -8.251153487894765
      ],
      [
        "移",
        -8.251468395177909
      ],
      [
        "鉄道",
        -8.251633447469317
      ],
      [
        "アー",
        -8.252741192468184
      ],
      [
        "のみ",
        -8.253300069830807
      ],
      [
        "楽",
        -8.258300710736968
      ],
      [
        "置",
        -8.260634712190273
      ],
      [
        "室",
        -8.260720260435285
      ],
      [
        "旧",
        -8.261826657720322
      ],
      [
        "当時",
        -8.26241859541587
      ],
      [
        "河",
        -8.262559506049449
      ],
      [
        "オー",
        -8.2629151604062
      ],
      [
        "調",
        -8.265855316388771
      ],
      [
        "艦",
        -8.266657980155784
      ],
      [
        "落",
        -8.26769219328168
      ],
      [
        "!",
        -8.269368036032835
      ],
      [
        "放",
        -8.270511891416945
      ],
      [
        "従",
        -8.271030929111499
      ],
      [
        "モン",
        -8.273578917207288
      ],
      [
        "ように",
        -8.278603117241774
      ],
      [
        "ね",
        -8.279283306543713
      ],
      [
        "そ",
        -8.27955104347213
      ],
      [
        "平成",
        -8.2857519462138
      ],
      [
        "領",
        -8.286504890068073
      ],
      [
        "編",
        -8.287416619389264
      ],
      [
        "問題",
        -8.287779415395294
      ],
      [
        "渡",
        -8.287985198739934
      ],
      [
        "交",
        -8.288531445157584
      ],
      [
        "利用",
        -8.2908947981133
      ],
      [
        "司",
        -8.290980891559972
      ],
      [
        "敗",
        -8.293254244617614
      ],
      [
        "質",
        -8.299072754900285
      ],
      [
        "今",
        -8.299396847547076
      ],
      [
        "となっている",
        -8.299960221562335
      ],
      [
        "れる",
        -8.303043337964322
      ],
      [
        "佐",
        -8.30487141429406
      ],
      [
        "シー",
        -8.30524657667792
      ],
      [
        "ブル",
        -8.305981926872665
      ],
      [
        "かれ",
        -8.306770492805018
      ],
      [
        "経",
        -8.307767629927755
      ],
      [
        "すると",
        -8.310472480123664
      ],
      [
        "男",
        -8.312604239274176
      ],
      [
        "開催",
        -8.31371034945044
      ],
      [
        "社会",
        -8.314678893562997
      ],
      [
        "視",
        -8.317089105151432
      ],
      [
        "音楽",
        -8.31787050998663
      ],
      [
        "際",
        -8.319839521582885
      ],
      [
        "終",
        -8.320811925805602
      ],
      [
        "世紀",
        -8.321011784911347
      ],
      [
        "登場",
        -8.322964991045513
      ],
      [
        "省",
        -8.323691583695865
      ],
      [
        "会社",
        -8.3244926822994
      ],
      [
        "常",
        -8.327791671555424
      ],
      [
        "谷",
        -8.32828284841141
      ],
      [
        "上げ",
        -8.331331859092515
      ],
      [
        "良",
        -8.331767116922846
      ],
      [
        "ことが",
        -8.332800740822776
      ],
      [
        "21",
        -8.33388365198407
      ],
      [
        "多くの",
        -8.335853373586295
      ],
      [
        "国際",
        -8.338559259521157
      ],
      [
        "ひ",
        -8.338759047254095
      ],
      [
        "監督",
        -8.340485591475577
      ],
      [
        "岡",
        -8.342460304459898
      ],
      [
        "ウェ",
        -8.34431916806007
      ],
      [
        "付け",
        -8.344423738228999
      ],
      [
        "四",
        -8.345241180208783
      ],
      [
        "優勝",
        -8.347037721303757
      ],
      [
        "低",
        -8.348706696945323
      ],
      [
        "記録",
        -8.349655389617926
      ],
      [
        "日の",
        -8.34987387729832
      ],
      [
        "一般",
        -8.349926573598076
      ],
      [
        "戦争",
        -8.350043591204122
      ],
      [
        "取り",
        -8.353106137793025
      ],
      [
        "これは",
        -8.353770561264671
      ],
      [
        "エン",
        -8.354138818569876
      ],
      [
        "ワー",
        -8.35425059110851
      ],
      [
        "ックス",
        -8.354505444285353
      ],
      [
        "イギリス",
        -8.354718150060785
      ],
      [
        "ゲーム",
        -8.359305336267562
      ],
      [
        "24",
        -8.35942170271243
      ],
      [
        "走",
        -8.359678541856491
      ],
      [
        "があり",
        -8.362337421857603
      ],
      [
        "しており",
        -8.364573192071758
      ],
      [
        "異",
        -8.364906376427575
      ],
      [
        "好",
        -8.366524001561192
      ],
      [
        "母",
        -8.367301049118902
      ],
      [
        "打",
        -8.36796583264981
      ],
      [
        "美",
        -8.369783327090817
      ],
      [
        "帯",
        -8.369864671171717
      ],
      [
        "料",
        -8.369898132080536
      ],
      [
        "生まれ",
        -8.37267829220359
      ],
      [
        "失",
        -8.373995004703215
      ],
      [
        "守",
        -8.375230201345502
      ],
      [
        "利",
        -8.3763765269506
      ],
      [
        "説",
        -8.378347371935371
      ],
      [
        "配",
        -8.379608965366224
      ],
      [
        "類",
        -8.380860817922063
      ],
      [
        "族",
        -8.381413894022327
      ],
      [
        "X",
        -8.38241217347515
      ],
      [
        "に対して",
        -8.383455258568512
      ],
      [
        "送",
        -8.384646812397435
      ],
      [
        "建",
        -8.38585880785125
      ],
      [
        "もある",
        -8.386022778766216
      ],
      [
        "率",
        -8.386077644995499
      ],
      [
        "シリーズ",
        -8.387453842690713
      ],
      [
        "ぶ",
        -8.387513428405814
      ],
      [
        "校",
        -8.38856634653253
      ],
      [
        "増",
        -8.390057262433258
      ],
      [
        "ゼ",
        -8.390173799294269
      ],
      [
        "字",
        -8.392235597291064
      ],
      [
        "歴史",
        -8.393144380146296
      ],
      [
        "共",
        -8.393729433254547
      ],
      [
        "火",
        -8.394273141767668
      ],
      [
        "際に",
        -8.39543014283921
      ],
      [
        "ニア",
        -8.396842977694897
      ],
      [
        "ヌ",
        -8.39899557975417
      ],
      [
        "したが",
        -8.400147884179182
      ],
      [
        "参",
        -8.40122758539549
      ],
      [
        "w",
        -8.402205550134969
      ],
      [
        "鉄",
        -8.40232187179542
      ],
      [
        "』(",
        -8.40260489309791
      ],
      [
        "吉",
        -8.40267157304334
      ],
      [
        "差",
        -8.402746542938278
      ],
      [
        "ビー",
        -8.403130436922236
      ],
      [
        "中国",
        -8.403133727571175
      ],
      [
        "チェ",
        -8.403905753159183
      ],
      [
        "防",
        -8.403916289331908
      ],
      [
        "夫",
        -8.40585335977928
      ],
      [
        "開始",
        -8.407893762373138
      ],
      [
        "切",
        -8.408723424641115
      ],
      [
        "40",
        -8.40913648571612
      ],
      [
        "計画",
        -8.40945241896025
      ],
      [
        "英",
        -8.409636782178936
      ],
      [
        "カル",
        -8.409726105106378
      ],
      [
        "真",
        -8.409759600730899
      ],
      [
        "ファ",
        -8.411340900004435
      ],
      [
        "殺",
        -8.411468575110145
      ],
      [
        "門",
        -8.412181943192698
      ],
      [
        "崎",
        -8.420321870538872
      ],
      [
        "太",
        -8.420592410407732
      ],
      [
        "いる",
        -8.42239999897808
      ],
      [
        "優",
        -8.422800898602668
      ],
      [
        "造",
        -8.423404135417686
      ],
      [
        "を受け",
        -8.427652615881858
      ],
      [
        "足",
        -8.428615815912808
      ],
      [
        "だけ",
        -8.428970651285967
      ],
      [
        "22",
        -8.429773751938468
      ],
      [
        "政府",
        -8.431194066971532
      ],
      [
        "そして",
        -8.43179174668697
      ],
      [
        "ており",
        -8.433765818595838
      ],
      [
        "にて",
        -8.436424143418966
      ],
      [
        "教育",
        -8.43703442071706
      ],
      [
        "断",
        -8.437258421033663
      ],
      [
        "23",
        -8.43750702460489
      ],
      [
        "図",
        -8.438697041392311
      ],
      [
        "後の",
        -8.441415922079802
      ],
      [
        "ルー",
        -8.442426367086547
      ],
      [
        "源",
        -8.44258090849809
      ],
      [
        "とした",
        -8.442780451013311
      ],
      [
        "観",
        -8.445686376803023
      ],
      [
        "結果",
        -8.4495352449641
      ],
      [
        "とともに",
        -8.450399139485226
      ],
      [
        "器",
        -8.4525627275669
      ],
      [
        "th",
        -8.452675250235924
      ],
      [
        "出場",
        -8.453990696931585
      ],
      [
        "事業",
        -8.454077731198074
      ],
      [
        "計",
        -8.456092856796094
      ],
      [
        "選手",
        -8.456565801488809
      ],
      [
        "日本の",
        -8.458624941025281
      ],
      [
        "を見",
        -8.459746784275525
      ],
      [
        "興",
        -8.460162157255391
      ],
      [
        "座",
        -8.460697338510155
      ],
      [
        "応",
        -8.462032054173275
      ],
      [
        "千",
        -8.46241776742493
      ],
      [
        "中に",
        -8.463630796385369
      ],
      [
        "者の",
        -8.46416691742258
      ],
      [
        "文化",
        -8.464840014203112
      ],
      [
        "なる",
        -8.465467910457384
      ],
      [
        "支",
        -8.466081904166018
      ],
      [
        "始",
        -8.468618388115132
      ],
      [
        "Y",
        -8.468854786916916
      ],
      [
        "引き",
        -8.470651365757197
      ],
      [
        "バス",
        -8.47110714712612
      ],
      [
        "福",
        -8.47119297089298
      ],
      [
        "素",
        -8.472283432598012
      ],
      [
        "接",
        -8.472660449033336
      ],
      [
        "s ",
        -8.474591162034052
      ],
      [
        "ic",
        -8.474911037262638
      ],
      [
        "住",
        -8.475924383647936
      ],
      [
        "描",
        -8.476351819714766
      ],
      [
        "ランド",
        -8.477144275965898
      ],
      [
        "になる",
        -8.47875146304803
      ],
      [
        "ング",
        -8.483105188412186
      ],
      [
        "ドル",
        -8.484413045258021
      ],
      [
        "製",
        -8.485532997582418
      ],
      [
        "基",
        -8.487275656730363
      ],
      [
        "サー",
        -8.487764182501678
      ],
      [
        "陸",
        -8.488407697266844
      ],
      [
        "建設",
        -8.48898766926277
      ],
      [
        "波",
        -8.490933040499488
      ],
      [
        "頃",
        -8.49195195349462
      ],
      [
        "界",
        -8.492808235171035
      ],
      [
        "将",
        -8.494221189918427
      ],
      [
        "28",
        -8.494512459007364
      ],
      [
        "花",
        -8.494634925405425
      ],
      [
        "」(",
        -8.495339401037267
      ],
      [
        "事件",
        -8.496176434012828
      ],
      [
        "地方",
        -8.498116426786853
      ],
      [
        "アイ",
        -8.498871869322493
      ],
      [
        "発表",
        -8.499067577213028
      ],
      [
        "ヴァ",
        -8.500301834543144
      ],
      [
        "星",
        -8.500932909224455
      ],
      [
        "少",
        -8.501431948833963
      ],
      [
        "師",
        -8.501764335646547
      ],
      [
        "都市",
        -8.504260683297629
      ],
      [
        "ロン",
        -8.504644624087648
      ],
      [
        "経済",
        -8.504848370468022
      ],
      [
        "ほか",
        -8.506675053956851
      ],
      [
        "2008",
        -8.507284023058451
      ],
      [
        "26",
        -8.50795497792233
      ],
      [
        "オン",
        -8.509791196562574
      ],
      [
        "域",
        -8.511080962607188
      ],
      [
        "させ",
        -8.511831324736287
      ],
      [
        "27",
        -8.514208342371129
      ],
      [
        "満",
        -8.514609649183761
      ],
      [
        "、『",
        -8.515391462673275
      ],
      [
        "持",
        -8.516395777350034
      ],
      [
        "ご",
        -8.516780459863433
      ],
      [
        "つの",
        -8.516959809862396
      ],
      [
        "ハー",
        -8.517989580943928
      ],
      [
        "郎",
        -8.521280822926673
      ],
      [
        "よ",
        -8.52268817073948
      ],
      [
        "青",
        -8.522945091824159
      ],
      [
        "破",
        -8.526170010882252
      ],
      [
        "問",
        -8.526328841373003
      ],
      [
        "es",
        -8.526624095014677
      ],
      [
        "べ",
        -8.527827277858096
      ],
      [
        "主義",
        -8.528236636992029
      ],
      [
        "%",
        -8.528263818468965
      ],
      [
        "砲",
        -8.529008639651682
      ],
      [
        "かった",
        -8.529711443873936
      ],
      [
        "グラ",
        -8.532796534568327
      ],
      [
        "ろ",
        -8.532833042973932
      ],
      [
        "客",
        -8.532874517299536
      ],
      [
        "著",
        -8.533591232782081
      ],
      [
        "他",
        -8.533771397608385
      ],
      [
        "津",
        -8.534104083441592
      ],
      [
        "可能",
        -8.534357141463703
      ],
      [
        "根",
        -8.535515780439281
      ],
      [
        "シン",
        -8.535903349299328
      ],
      [
        "サイ",
        -8.536664689978503
      ],
      [
        "現在の",
        -8.537163355291925
      ],
      [
        "ぎ",
        -8.540214951349752
      ],
      [
        "レイ",
        -8.54093775673
      ],
      [
        "聖",
        -8.542841466413558
      ],
      [
        "題",
        -8.543646380715028
      ],
      [
        "要",
        -8.54375358182389
      ],
      [
        "シャ",
        -8.544059516713668
      ],
      [
        "ッチ",
        -8.544181237811314
      ],
      [
        "証",
        -8.54467590362102
      ],
      [
        "何",
        -8.545151247849402
      ],
      [
        "ボー",
        -8.545211832448443
      ],
      [
        "変更",
        -8.54524021142012
      ],
      [
        "材",
        -8.545648440343385
      ],
      [
        "売",
        -8.545710845841201
      ],
      [
        "五",
        -8.546362235546914
      ],
      [
        "留",
        -8.54668685641964
      ],
      [
        "年間",
        -8.547085346275408
      ],
      [
        "エル",
        -8.548338266052744
      ],
      [
        "デビュー",
        -8.54876692975745
      ],
      [
        "消",
        -8.54901375003312
      ],
      [
        "出身",
        -8.549137812820744
      ],
      [
        "があった",
        -8.552855216307737
      ],
      [
        "中央",
        -8.552950885776495
      ],
      [
        "過",
        -8.553044387489942
      ],
      [
        "入れ",
        -8.553656412472993
      ],
      [
        "コー",
        -8.554331503983569
      ],
      [
        "声",
        -8.557579238322317
      ],
      [
        "ながら",
        -8.55885971466816
      ],
      [
        "積",
        -8.559101105188414
      ],
      [
        "育",
        -8.561693936442365
      ],
      [
        "条",
        -8.562594299372298
      ],
      [
        "担当",
        -8.562903850421039
      ],
      [
        "他の",
        -8.565053706583381
      ],
      [
        "葉",
        -8.565124599548382
      ],
      [
        "弾",
        -8.567972284460302
      ],
      [
        "バイ",
        -8.56923997442319
      ],
      [
        "久",
        -8.56949907832443
      ],
      [
        "京",
        -8.569822605379125
      ],
      [
        "29",
        -8.569940556020418
      ],
      [
        "られている",
        -8.57136241880928
      ],
      [
        "創",
        -8.573494065206395
      ],
      [
        "レス",
        -8.57439395831234
      ],
      [
        "re",
        -8.575064786185745
      ],
      [
        "教授",
        -8.576296580264742
      ],
      [
        "挙",
        -8.57649874979823
      ],
      [
        "単",
        -8.577030176538386
      ],
      [
        "略",
        -8.577748565046894
      ],
      [
        "ると",
        -8.577907367943043
      ],
      [
        "テン",
        -8.578408662027936
      ],
      [
        "藩",
        -8.581730829122812
      ],
      [
        "史",
        -8.582653619191204
      ],
      [
        "と共に",
        -8.582682881635694
      ],
      [
        "圧",
        -8.58307674698946
      ],
      [
        "アルバム",
        -8.583505669272919
      ],
      [
        "機関",
        -8.584998848282712
      ],
      [
        "トラ",
        -8.58574812375146
      ],
      [
        "街",
        -8.586246802759401
      ],
      [
        "ゲ",
        -8.587529305115792
      ],
      [
        "園",
        -8.587614829267125
      ],
      [
        "契約",
        -8.588001389517423
      ],
      [
        "思",
        -8.589534582210527
      ],
      [
        "特に",
        -8.591703034406546
      ],
      [
        "ガー",
        -8.592073381596789
      ],
      [
        "継",
        -8.595832300581431
      ],
      [
        "2006",
        -8.597133333355812
      ],
      [
        "ほど",
        -8.598667766069017
      ],
      [
        "km",
        -8.600019727123142
      ],
      [
        "悪",
        -8.601323320291826
      ],
      [
        "んで",
        -8.6022291045074
      ],
      [
        "it",
        -8.60355575838928
      ],
      [
        "黒",
        -8.604700928265826
      ],
      [
        "状",
        -8.60644084560896
      ],
      [
        "カン",
        -8.607815763810397
      ],
      [
        "攻撃",
        -8.608166014025798
      ],
      [
        "翌",
        -8.608437939397092
      ],
      [
        "商",
        -8.60875948096525
      ],
      [
        "除",
        -8.60957244023388
      ],
      [
        "」「",
        -8.610289898228903
      ],
      [
        "とき",
        -8.61146979599441
      ],
      [
        "深",
        -8.613629044710775
      ],
      [
        "離",
        -8.61366552950943
      ],
      [
        "ことから",
        -8.614268309819307
      ],
      [
        "リング",
        -8.616217861804623
      ],
      [
        "だが",
        -8.617391957477254
      ],
      [
        "st",
        -8.618966225765883
      ],
      [
        "左",
        -8.619943937631767
      ],
      [
        "清",
        -8.620957594850347
      ],
      [
        "端",
        -8.62116744009025
      ],
      [
        "出演",
        -8.621949515705612
      ],
      [
        "赤",
        -8.62465965915226
      ],
      [
        "タイ",
        -8.627300921541783
      ],
      [
        "難",
        -8.628255204404839
      ],
      [
        "入り",
        -8.62829660428957
      ],
      [
        "これ",
        -8.628493302495732
      ],
      [
        "からの",
        -8.630127120278347
      ],
      [
        "モー",
        -8.631148613475947
      ],
      [
        "八",
        -8.632211252327235
      ],
      [
        "去",
        -8.633411495511393
      ],
      [
        "ようになった",
        -8.633986828619104
      ],
      [
        "情報",
        -8.634348016123697
      ],
      [
        "マイ",
        -8.635546402060104
      ],
      [
        "治",
        -8.636835452378685
      ],
      [
        "席",
        -8.637494765203222
      ],
      [
        "させる",
        -8.638218158850067
      ],
      [
        "属",
        -8.638511135951655
      ],
      [
        "管",
        -8.638873218082058
      ],
      [
        "政治",
        -8.638904238631165
      ],
      [
        "多く",
        -8.63927122739183
      ],
      [
        "所属",
        -8.639439742688394
      ],
      [
        "越",
        -8.640842406286028
      ],
      [
        "is",
        -8.641049849133163
      ],
      [
        "前に",
        -8.643352570595098
      ],
      [
        "ヴェ",
        -8.643494574386114
      ],
      [
        "ハイ",
        -8.644970047421696
      ],
      [
        "バル",
        -8.648220999480452
      ],
      [
        "複",
        -8.648481726061389
      ],
      [
        "選挙",
        -8.649956875981683
      ],
      [
        "御",
        -8.652361149878212
      ],
      [
        "遺",
        -8.65459698770823
      ],
      [
        "求",
        -8.655260839506411
      ],
      [
        "洋",
        -8.656167370511286
      ],
      [
        "部分",
        -8.65619316624154
      ],
      [
        "示",
        -8.657091471793796
      ],
      [
        "若",
        -8.657581506594036
      ],
      [
        "運",
        -8.661471235926186
      ],
      [
        "薬",
        -8.662004737548079
      ],
      [
        "場所",
        -8.662341555983636
      ],
      [
        "戦で",
        -8.66343552418381
      ],
      [
        "中心",
        -8.664565890555487
      ],
      [
        "周",
        -8.664760997659428
      ],
      [
        "ために",
        -8.664778888160676
      ],
      [
        "右",
        -8.66594754610149
      ],
      [
        "を行う",
        -8.666501669767564
      ],
      [
        "ハン",
        -8.66691457652484
      ],
      [
        "トル",
        -8.667286012570358
      ],
      [
        "争",
        -8.669496315340009
      ],
      [
        "人物",
        -8.670229294455536
      ],
      [
        "速",
        -8.670310378082089
      ],
      [
        "プラ",
        -8.6710925603996
      ],
      [
        "女性",
        -8.671216572715387
      ],
      [
        "ウン",
        -8.671841350520495
      ],
      [
        "極",
        -8.671866496793811
      ],
      [
        "独",
        -8.672423597370422
      ],
      [
        "春",
        -8.67304479008311
      ],
      [
        "を持つ",
        -8.674241895623233
      ],
      [
        "ケー",
        -8.674264064756693
      ],
      [
        "ノー",
        -8.6745624465395
      ],
      [
        "養",
        -8.675109979480677
      ],
      [
        "勢",
        -8.675631191632965
      ],
      [
        "技術",
        -8.678070950278174
      ],
      [
        "徳",
        -8.679240840996714
      ],
      [
        "林",
        -8.679376771005325
      ],
      [
        "永",
        -8.67966104801664
      ],
      [
        "ch",
        -8.681851517347544
      ],
      [
        "。18",
        -8.682778681981096
      ],
      [
        "章",
        -8.683053882985572
      ],
      [
        "短",
        -8.683153117022929
      ],
      [
        "ザー",
        -8.683239047532021
      ],
      [
        "及び",
        -8.683651339371151
      ],
      [
        "返",
        -8.68422050531224
      ],
      [
        "比",
        -8.685486620341365
      ],
      [
        "と呼ばれる",
        -8.68730022492741
      ],
      [
        "尾",
        -8.68777840890926
      ],
      [
        "個",
        -8.689323400994692
      ],
      [
        "まり",
        -8.690876712538916
      ],
      [
        "蔵",
        -8.693026354579738
      ],
      [
        "ユ",
        -8.693120866011068
      ],
      [
        "デン",
        -8.693133261468097
      ],
      [
        "未",
        -8.693264414020543
      ],
      [
        "le",
        -8.693384309395258
      ],
      [
        "ウィ",
        -8.696017217774088
      ],
      [
        "決定",
        -8.696396248198736
      ],
      [
        "必要",
        -8.696929556762028
      ],
      [
        "発売",
        -8.697626943568038
      ],
      [
        "航空",
        -8.70010340324572
      ],
      [
        "100",
        -8.701051426975553
      ],
      [
        "マル",
        -8.70254490706525
      ],
      [
        "まった",
        -8.707047597117326
      ],
      [
        "x",
        -8.708899302841402
      ],
      [
        "タン",
        -8.709015479541982
      ],
      [
        "戻",
        -8.709141171596952
      ],
      [
        "球",
        -8.712179072001756
      ],
      [
        "発生",
        -8.712422824459763
      ],
      [
        "巻",
        -8.71365830031482
      ],
      [
        "限",
        -8.713821588465217
      ],
      [
        "at",
        -8.713859477328446
      ],
      [
        "ところ",
        -8.714115624061584
      ],
      [
        "システム",
        -8.714619043463998
      ],
      [
        "ジュ",
        -8.71651224962537
      ],
      [
        "31",
        -8.718366212626606
      ],
      [
        "ブラ",
        -8.719250772695364
      ],
      [
        "降",
        -8.720340336698163
      ],
      [
        "の中で",
        -8.720340625546777
      ],
      [
        "評",
        -8.720872399420358
      ],
      [
        "高校",
        -8.721245861617199
      ],
      [
        "資",
        -8.721261930778043
      ],
      [
        "夜",
        -8.72176096933036
      ],
      [
        "に対する",
        -8.722139127956535
      ],
      [
        "それぞれ",
        -8.724963686028687
      ],
      [
        "甲",
        -8.726037737913796
      ],
      [
        "盤",
        -8.726076583928199
      ],
      [
        "ジョン",
        -8.727008813661659
      ],
      [
        "しく",
        -8.727907704750832
      ],
      [
        "ro",
        -8.728428143928404
      ],
      [
        "かけ",
        -8.729000604827151
      ],
      [
        "認",
        -8.729836721169633
      ],
      [
        "の大",
        -8.730338367881766
      ],
      [
        "つけ",
        -8.730515818112503
      ],
      [
        "投",
        -8.730942203362558
      ],
      [
        "販売",
        -8.7310783395884
      ],
      [
        "味",
        -8.731881531470238
      ],
      [
        "としては",
        -8.733151523941844
      ],
      [
        "調査",
        -8.73501643486896
      ],
      [
        "予",
        -8.73784699943472
      ],
      [
        "地区",
        -8.73872398946009
      ],
      [
        "非",
        -8.739285158747647
      ],
      [
        "堂",
        -8.739451221954889
      ],
      [
        "沢",
        -8.740830115906606
      ],
      [
        "2005",
        -8.740957681332993
      ],
      [
        "グループ",
        -8.741217837832387
      ],
      [
        "ではない",
        -8.742372133924457
      ],
      [
        "状態",
        -8.742661471638806
      ],
      [
        "クス",
        -8.742934747041277
      ],
      [
        "ピー",
        -8.743589982954814
      ],
      [
        "移籍",
        -8.744239329043475
      ],
      [
        "年まで",
        -8.74474923459794
      ],
      [
        "卒業",
        -8.745285867408102
      ],
      [
        "祭",
        -8.745862766227141
      ],
      [
        "病",
        -8.746181751161524
      ],
      [
        "劇",
        -8.74688206225658
      ],
      [
        "ではなく",
        -8.749939148196495
      ],
      [
        "細",
        -8.750636080304023
      ],
      [
        "都",
        -8.752401840288936
      ],
      [
        "2000",
        -8.75471288276606
      ],
      [
        ": ",
        -8.755059951841181
      ],
      [
        "ウス",
        -8.75786518377676
      ],
      [
        "ヨ",
        -8.758072425406171
      ],
      [
        "居",
        -8.759147835817682
      ],
      [
        "採用",
        -8.761693735082176
      ],
      [
        "突",
        -8.762651262096673
      ],
      [
        "段",
        -8.76545837727705
      ],
      [
        "されて",
        -8.766304844994153
      ],
      [
        "生活",
        -8.766664028832793
      ],
      [
        "江",
        -8.767256267390966
      ],
      [
        "告",
        -8.767754277330052
      ],
      [
        "60",
        -8.768916976859405
      ],
      [
        "クリ",
        -8.770016995158114
      ],
      [
        "設置",
        -8.770063864165303
      ],
      [
        "時に",
        -8.77078961503627
      ],
      [
        "終了",
        -8.771082597619438
      ],
      [
        "フォー",
        -8.771656591859456
      ],
      [
        "宗",
        -8.77170588846762
      ],
      [
        "令",
        -8.771791176292098
      ],
      [
        "円",
        -8.773622670593475
      ],
      [
        "推",
        -8.773696340379924
      ],
      [
        "ニュー",
        -8.774723632198429
      ],
      [
        "呼ばれ",
        -8.775055195676492
      ],
      [
        "紙",
        -8.77581279055411
      ],
      [
        "角",
        -8.776902122697026
      ],
      [
        "戸",
        -8.777441175931001
      ],
      [
        "チャ",
        -8.777846443985043
      ],
      [
        "群",
        -8.778633878338693
      ],
      [
        "私",
        -8.778715767801609
      ],
      [
        "ロシア",
        -8.779563900397829
      ],
      [
        "帝国",
        -8.779859373265706
      ],
      [
        "志",
        -8.781189257638161
      ],
      [
        "当時の",
        -8.78175482374023
      ],
      [
        "勝利",
        -8.783356405408322
      ],
      [
        "議会",
        -8.787481392712198
      ],
      [
        "帰",
        -8.787639897875357
      ],
      [
        "密",
        -8.78899133426133
      ],
      [
        "施設",
        -8.78973112540268
      ],
      [
        "クロ",
        -8.790770524753253
      ],
      [
        "農",
        -8.792750064188999
      ],
      [
        "森",
        -8.79299838649839
      ],
      [
        "制作",
        -8.795059454756872
      ],
      [
        "組織",
        -8.795344854744307
      ],
      [
        "案",
        -8.7956615398459
      ],
      [
        "秀",
        -8.79570184024527
      ],
      [
        "al",
        -8.795974454106474
      ],
      [
        "岩",
        -8.796257299381224
      ],
      [
        "に関する",
        -8.796528556086527
      ],
      [
        "初めて",
        -8.79676788201783
      ],
      [
        "存",
        -8.798844814835746
      ],
      [
        "伊",
        -8.800637761069495
      ],
      [
        "確",
        -8.801006205582198
      ],
      [
        "といった",
        -8.801020982485406
      ],
      [
        "以上",
        -8.80118252869795
      ],
      [
        "想",
        -8.802366990468844
      ],
      [
        "費",
        -8.802471658340167
      ],
      [
        "選手権",
        -8.802526828625776
      ],
      [
        "部隊",
        -8.80342227971518
      ],
      [
        "首",
        -8.805124647796324
      ],
      [
        "については",
        -8.8062223504756
      ],
      [
        "秋",
        -8.806238536708982
      ],
      [
        "復",
        -8.806769523107448
      ],
      [
        "補",
        -8.807936079306065
      ],
      [
        "豊",
        -8.81042814334893
      ],
      [
        "受",
        -8.810540173759655
      ],
      [
        "大阪",
        -8.810698849588814
      ],
      [
        "技",
        -8.811682999360766
      ],
      [
        "航",
        -8.812192088275797
      ],
      [
        "換",
        -8.812419303251616
      ],
      [
        "大きな",
        -8.813058999391997
      ],
      [
        "照",
        -8.81697252131682
      ],
      [
        "ヴ",
        -8.822135445648922
      ],
      [
        "生産",
        -8.82256894596817
      ],
      [
        "させた",
        -8.822994800188463
      ],
      [
        "バン",
        -8.82377041794542
      ],
      [
        "丸",
        -8.824059753458103
      ],
      [
        "海軍",
        -8.82494194593989
      ],
      [
        "チャー",
        -8.826801108203298
      ],
      [
        "ガン",
        -8.828281088099715
      ],
      [
        "ra",
        -8.829355162040773
      ],
      [
        "彼は",
        -8.830367602683866
      ],
      [
        "獲得",
        -8.83059579994756
      ],
      [
        "を受けた",
        -8.835051742981923
      ],
      [
        "行われた",
        -8.835249882234452
      ],
      [
        "最も",
        -8.836324791957388
      ],
      [
        "にかけて",
        -8.83683833128403
      ],
      [
        "害",
        -8.83754325748934
      ],
      [
        "術",
        -8.84012937058233
      ],
      [
        "えて",
        -8.84139738244304
      ],
      [
        "検",
        -8.841655657059913
      ],
      [
        "全国",
        -8.842155728417175
      ],
      [
        "を経て",
        -8.842789689387372
      ],
      [
        "製造",
        -8.84352252265361
      ],
      [
        "運動",
        -8.8464815562354
      ],
      [
        "に就任",
        -8.84716449355596
      ],
      [
        "z",
        -8.849209671193082
      ],
      [
        "追",
        -8.8500671025106
      ],
      [
        "報",
        -8.851773514622632
      ],
      [
        "ダン",
        -8.85227716300235
      ],
      [
        "ただし",
        -8.852477852023164
      ],
      [
        "ri",
        -8.852522821498741
      ],
      [
        "同じ",
        -8.852843032978077
      ],
      [
        "張",
        -8.853381067614333
      ],
      [
        "指",
        -8.85412492566167
      ],
      [
        "高い",
        -8.854170933370963
      ],
      [
        "熱",
        -8.854275240631146
      ],
      [
        "射",
        -8.855717669969891
      ],
      [
        "ジャー",
        -8.857643011434758
      ],
      [
        "ユー",
        -8.858869525152437
      ],
      [
        "あり",
        -8.861246520854912
      ],
      [
        "像",
        -8.86350235129967
      ],
      [
        "y ",
        -8.863684623582499
      ],
      [
        "抜",
        -8.864379923237802
      ],
      [
        "目的",
        -8.8645790411356
      ],
      [
        "ファン",
        -8.866129242589528
      ],
      [
        "公開",
        -8.869749497517844
      ],
      [
        "スタン",
        -8.86989019766519
      ],
      [
        "板",
        -8.871058041401954
      ],
      [
        "妻",
        -8.871093710923283
      ],
      [
        "激",
        -8.87113862110293
      ],
      [
        "刑",
        -8.871333255191455
      ],
      [
        "ダイ",
        -8.87137601923904
      ],
      [
        "活躍",
        -8.87154988188642
      ],
      [
        "港",
        -8.871638891268963
      ],
      [
        "メンバー",
        -8.872880145861858
      ],
      [
        "評価",
        -8.873866179434645
      ],
      [
        "構造",
        -8.874091024141448
      ],
      [
        "収録",
        -8.876553677929799
      ],
      [
        "血",
        -8.87688878332757
      ],
      [
        "果",
        -8.877170101168382
      ],
      [
        "盛",
        -8.878244807672562
      ],
      [
        "影響",
        -8.878524597455174
      ],
      [
        "一部",
        -8.879157099589799
      ],
      [
        "節",
        -8.880675180972363
      ],
      [
        "自由",
        -8.880769253194776
      ],
      [
        "ホーム",
        -8.883843965724772
      ],
      [
        "通り",
        -8.885517781809384
      ],
      [
        "委員会",
        -8.889447402051719
      ],
      [
        "寄",
        -8.891126943607718
      ],
      [
        "かつて",
        -8.891128352911807
      ],
      [
        "独立",
        -8.89120903410059
      ],
      [
        "教会",
        -8.892259034527399
      ],
      [
        "2004",
        -8.892702422403813
      ],
      [
        "ol",
        -8.893444990251659
      ],
      [
        "ッシュ",
        -8.893451078615689
      ],
      [
        "車両",
        -8.894422185328672
      ],
      [
        "しない",
        -8.894799870193285
      ],
      [
        "典",
        -8.894830776212023
      ],
      [
        "になって",
        -8.8964179694398
      ],
      [
        "ような",
        -8.897369787735887
      ],
      [
        "爆",
        -8.89744016072696
      ],
      [
        "ものである",
        -8.898017425711172
      ],
      [
        "学部",
        -8.900515741712654
      ],
      [
        "国内",
        -8.900550864517722
      ],
      [
        "絶",
        -8.900595854365067
      ],
      [
        "クラブ",
        -8.901163553953202
      ],
      [
        "望",
        -8.90200509277766
      ],
      [
        "護",
        -8.903072937558871
      ],
      [
        "機能",
        -8.903340253898728
      ],
      [
        "財",
        -8.903521349322254
      ],
      [
        "並",
        -8.904210176560381
      ],
      [
        "雄",
        -8.9045661365728
      ],
      [
        "府",
        -8.904590673692468
      ],
      [
        "層",
        -8.90642537714398
      ],
      [
        "ビル",
        -8.906614804528465
      ],
      [
        "引",
        -8.906801613368094
      ],
      [
        "訪",
        -8.907961857200384
      ],
      [
        "倉",
        -8.90821039896056
      ],
      [
        "始め",
        -8.909326754368855
      ],
      [
        "跡",
        -8.910789667090652
      ],
      [
        "情",
        -8.912662588606185
      ],
      [
        "時期",
        -8.912864862699276
      ],
      [
        "ur",
        -8.91348651103583
      ],
      [
        "向け",
        -8.914322643309248
      ],
      [
        "準",
        -8.91492130029061
      ],
      [
        "ほとんど",
        -8.915429466148717
      ],
      [
        "管理",
        -8.916647527270637
      ],
      [
        "列車",
        -8.916902994106733
      ],
      [
        "宝",
        -8.917183617720992
      ],
      [
        "境",
        -8.918479526502315
      ],
      [
        "路線",
        -8.918610670127581
      ],
      [
        "自身",
        -8.918990080033193
      ],
      [
        "習",
        -8.920054557651213
      ],
      [
        "幅",
        -8.920245084905238
      ],
      [
        "最高",
        -8.923585599461035
      ],
      [
        "シェ",
        -8.923614557838986
      ],
      [
        "考",
        -8.925375639872671
      ],
      [
        "全て",
        -8.925548033676225
      ],
      [
        "シア",
        -8.927894167154529
      ],
      [
        "するため",
        -8.936725186656625
      ],
      [
        "敵",
        -8.936749097921838
      ],
      [
        "夏",
        -8.937228779422513
      ],
      [
        "副",
        -8.937404720306828
      ],
      [
        "〜",
        -8.938076779473313
      ],
      [
        "襲",
        -8.939374170458208
      ],
      [
        "モデル",
        -8.93958399077903
      ],
      [
        "センター",
        -8.941564452116983
      ],
      [
        "されており",
        -8.941803630125802
      ],
      [
        "議員",
        -8.942247522327119
      ],
      [
        "ふ",
        -8.943292563793557
      ],
      [
        "曜",
        -8.944838445374476
      ],
      [
        "ウル",
        -8.945468653407625
      ],
      [
        "セン",
        -8.945897244330249
      ],
      [
        "発見",
        -8.947099085443416
      ],
      [
        "絵",
        -8.947129452563825
      ],
      [
        "規",
        -8.947320853794615
      ],
      [
        "ゾ",
        -8.948212245953044
      ],
      [
        "再び",
        -8.950786379474367
      ],
      [
        "道路",
        -8.951492134996855
      ],
      [
        "最大",
        -8.951905854479424
      ],
      [
        "休",
        -8.95315625109573
      ],
      [
        "2010",
        -8.953525741004897
      ],
      [
        "営",
        -8.95402408892366
      ],
      [
        "迎",
        -8.955450128590101
      ],
      [
        "一方",
        -8.955983555688407
      ],
      [
        "キー",
        -8.959769413427919
      ],
      [
        "企業",
        -8.959888643865277
      ],
      [
        "京都",
        -8.96127536644444
      ],
      [
        "製作",
        -8.961657043443147
      ],
      [
        "ダム",
        -8.966504648404605
      ],
      [
        "シングル",
        -8.968022485271806
      ],
      [
        "戦闘",
        -8.968067635624168
      ],
      [
        "特徴",
        -8.968962853148541
      ],
      [
        "歩",
        -8.969817928807363
      ],
      [
        "~",
        -8.970266794488136
      ],
      [
        "第一",
        -8.970495214515818
      ],
      [
        "備",
        -8.970828453704943
      ],
      [
        "服",
        -8.971308754127891
      ],
      [
        "決勝",
        -8.971345815134733
      ],
      [
        "奪",
        -8.971490794971734
      ],
      [
        "攻",
        -8.971638258258363
      ],
      [
        "彼女",
        -8.972481821383326
      ],
      [
        "皇",
        -8.973041974400438
      ],
      [
        "野球",
        -8.973993870633487
      ],
      [
        "容",
        -8.974054796350629
      ],
      [
        "us",
        -8.977034171151608
      ],
      [
        "ゆ",
        -8.97809974226904
      ],
      [
        "セル",
        -8.97856644857598
      ],
      [
        "実施",
        -8.97881790768187
      ],
      [
        "横",
        -8.979364553600144
      ],
      [
        "振",
        -8.979399820087332
      ],
      [
        "弟",
        -8.979984820280333
      ],
      [
        "エンジン",
        -8.980251361284525
      ],
      [
        "刊",
        -8.981065648223119
      ],
      [
        "出来",
        -8.982379335749288
      ],
      [
        "2007",
        -8.982758200110363
      ],
      [
        "設計",
        -8.983481448641518
      ],
      [
        "然",
        -8.984210776916068
      ],
      [
        "減",
        -8.985203775757062
      ],
      [
        "協",
        -8.986565226118522
      ],
      [
        "輪",
        -8.986800917825533
      ],
      [
        "ショ",
        -8.98740906848793
      ],
      [
        "人間",
        -8.988082284401532
      ],
      [
        "順",
        -8.989207070658047
      ],
      [
        "築",
        -8.989568812767976
      ],
      [
        "衆",
        -8.990454488657642
      ],
      [
        "協会",
        -8.990894605352741
      ],
      [
        "姿",
        -8.992007507736538
      ],
      [
        "述べ",
        -8.994004388709165
      ],
      [
        "70",
        -8.996925253633162
      ],
      [
        "列",
        -8.996933404553934
      ],
      [
        "ジョ",
        -8.998307781424993
      ],
      [
        "意味",
        -8.998600925073047
      ],
      [
        "提",
        -8.998616984584269
      ],
      [
        "らない",
        -8.998765239246284
      ],
      [
        "飛行",
        -9.001487030271598
      ],
      [
        "80",
        -9.002098310300285
      ],
      [
        "結婚",
        -9.002637911915597
      ],
      [
        "割",
        -9.003825952809109
      ],
      [
        "FC",
        -9.004279344160095
      ],
      [
        "2009",
        -9.00588143150627
      ],
      [
        "没",
        -9.006831292578022
      ],
      [
        "内容",
        -9.008129087348477
      ],
      [
        "記念",
        -9.008229748178469
      ],
      [
        "指揮",
        -9.008787366678341
      ],
      [
        "そう",
        -9.009025140610603
      ],
      [
        "ジー",
        -9.009487536787294
      ],
      [
        "規模",
        -9.009713753281462
      ],
      [
        "最初の",
        -9.009847006417715
      ],
      [
        "通常",
        -9.010108493657949
      ],
      [
        "学生",
        -9.013828929991796
      ],
      [
        "賀",
        -9.014006869117999
      ],
      [
        "酸",
        -9.014006874868524
      ],
      [
        "考え",
        -9.014268816845355
      ],
      [
        "友",
        -9.014837644565672
      ],
      [
        "ロック",
        -9.015628710724828
      ],
      [
        "初期",
        -9.019359077765488
      ],
      [
        "能",
        -9.019640460576435
      ],
      [
        "対応",
        -9.019921011220143
      ],
      [
        "之",
        -9.0209038722203
      ],
      [
        "覚",
        -9.021651880465846
      ],
      [
        "庁",
        -9.022435279412614
      ],
      [
        "受け",
        -9.022465069086419
      ],
      [
        "死去",
        -9.023833842207504
      ],
      [
        "宿",
        -9.024143474806191
      ],
      [
        "彼",
        -9.024288170162126
      ],
      [
        "枚",
        -9.025749746593927
      ],
      [
        "引退",
        -9.025930405778798
      ],
      [
        "構成",
        -9.02671148957798
      ],
      [
        "2003",
        -9.02781501365452
      ],
      [
        "経営",
        -9.028177895884719
      ],
      [
        "郷",
        -9.029689034213314
      ],
      [
        "会議",
        -9.03020954297583
      ],
      [
        "遠",
        -9.030620650023307
      ],
      [
        "リスト",
        -9.030829915999549
      ],
      [
        "el",
        -9.031773118495678
      ],
      [
        "映",
        -9.032230815928962
      ],
      [
        "ヨーロッパ",
        -9.03264052175801
      ],
      [
        "名称",
        -9.033460610809174
      ],
      [
        "2011",
        -9.036409665615613
      ],
      [
        "テー",
        -9.037774788662093
      ],
      [
        "出版",
        -9.03819233074905
      ],
      [
        "科学",
        -9.039683179149455
      ],
      [
        "'",
        -9.040624948261522
      ],
      [
        "階",
        -9.041611691854467
      ],
      [
        "キャラクター",
        -9.042968768074044
      ],
      [
        "交通",
        -9.044813801020537
      ],
      [
        "連合",
        -9.045258557213577
      ],
      [
        "設",
        -9.045737967710243
      ],
      [
        "搭載",
        -9.046590309188709
      ],
      [
        "則",
        -9.047262219504534
      ],
      [
        "兼",
        -9.047333635960698
      ],
      [
        "捕",
        -9.047405010218652
      ],
      [
        "負",
        -9.047557467916457
      ],
      [
        "似",
        -9.047887286496328
      ],
      [
        "軽",
        -9.049675348088604
      ],
      [
        "プレー",
        -9.049880350496089
      ],
      [
        "フラン",
        -9.050921858013593
      ],
      [
        "坂",
        -9.051018495553159
      ],
      [
        "舎",
        -9.05110810289385
      ],
      [
        "アニメ",
        -9.0521170965309
      ],
      [
        "mm",
        -9.052133089369098
      ],
      [
        "倒",
        -9.053584439900122
      ],
      [
        "活",
        -9.054212874604499
      ],
      [
        "に対し",
        -9.054344058523446
      ],
      [
        "便",
        -9.05460906698956
      ],
      [
        "et",
        -9.055466148217999
      ],
      [
        "un",
        -9.05634867607094
      ],
      [
        "頼",
        -9.057528339552464
      ],
      [
        "印",
        -9.057833597813392
      ],
      [
        "予定",
        -9.05837618258671
      ],
      [
        "プレ",
        -9.0591487256963
      ],
      [
        "理由",
        -9.059301700475414
      ],
      [
        "名前",
        -9.060163394314877
      ],
      [
        "イタリア",
        -9.06248794189849
      ],
      [
        "以下",
        -9.063171339416408
      ],
      [
        "彼ら",
        -9.063536681077368
      ],
      [
        "as",
        -9.06392231696566
      ],
      [
        "廃",
        -9.063967876764757
      ],
      [
        "池",
        -9.064350342602786
      ],
      [
        "許",
        -9.067030941945934
      ],
      [
        "玉",
        -9.068536162445625
      ],
      [
        "メートル",
        -9.07070388821498
      ],
      [
        "衛",
        -9.071179827179972
      ],
      [
        "am",
        -9.075211078154428
      ],
      [
        "ッツ",
        -9.075527879399544
      ],
      [
        "2012",
        -9.078265127681082
      ],
      [
        "ケット",
        -9.079526798395543
      ],
      [
        "大きく",
        -9.079893922348878
      ],
      [
        "富",
        -9.080379504273246
      ],
      [
        "延",
        -9.08079114750581
      ],
      [
        "ジャン",
        -9.081304420979134
      ],
      [
        "ドラマ",
        -9.081959534257308
      ],
      [
        "を務めた",
        -9.08209568991722
      ],
      [
        "連続",
        -9.082524041319576
      ],
      [
        "らず",
        -9.08330619591419
      ],
      [
        "症",
        -9.083344579367497
      ],
      [
        "携",
        -9.086533280727952
      ],
      [
        "警",
        -9.08905826745563
      ],
      [
        "買",
        -9.091018344262869
      ],
      [
        "特別",
        -9.091073522111696
      ],
      [
        "新聞",
        -9.093714653177456
      ],
      [
        "メント",
        -9.094400708853629
      ],
      [
        "概要",
        -9.095348795936157
      ],
      [
        "判",
        -9.096149851240478
      ],
      [
        "含",
        -9.096405622102498
      ],
      [
        "毎",
        -9.097568890631136
      ],
      [
        "Z",
        -9.097924733428078
      ],
      [
        "諸",
        -9.098089599488125
      ],
      [
        "脱",
        -9.099071108161802
      ],
      [
        "完全",
        -9.099285810693148
      ],
      [
        "文学",
        -9.099293032735181
      ],
      [
        "英語",
        -9.099321170663268
      ],
      [
        "読",
        -9.09969094179454
      ],
      [
        "ょ",
        -9.10125794126677
      ],
      [
        "リリース",
        -9.10222663868108
      ],
      [
        "したこと",
        -9.10286769739537
      ],
      [
        "&",
        -9.10378283754348
      ],
      [
        "期間",
        -9.106082186505395
      ],
      [
        "詞",
        -9.10622283194468
      ],
      [
        "娘",
        -9.106525882338588
      ],
      [
        "審",
        -9.107151213974197
      ],
      [
        "試",
        -9.109625490964474
      ],
      [
        "草",
        -9.110378829956124
      ],
      [
        "導入",
        -9.11121296910363
      ],
      [
        "専門",
        -9.11222631319544
      ],
      [
        "アメリカ合衆国",
        -9.112434741045139
      ],
      [
        "忠",
        -9.113082846685172
      ],
      [
        "公式",
        -9.113229835454657
      ],
      [
        "止",
        -9.113481432309854
      ],
      [
        "女子",
        -9.1139173412989
      ],
      [
        "タイトル",
        -9.114254255962926
      ],
      [
        "芸",
        -9.114281601670367
      ],
      [
        "誌",
        -9.114727589146582
      ],
      [
        "週",
        -9.115453248451104
      ],
      [
        "その他",
        -9.115591724951049
      ],
      [
        "鳥",
        -9.11621492147416
      ],
      [
        "てしまう",
        -9.116230776670951
      ],
      [
        "ライブ",
        -9.11646648120194
      ],
      [
        "環境",
        -9.11721742807856
      ],
      [
        "設定",
        -9.117341388624796
      ],
      [
        "導",
        -9.119927217467577
      ],
      [
        "陸軍",
        -9.122531957509159
      ],
      [
        "騎",
        -9.123683517196259
      ],
      [
        "介",
        -9.125200609390092
      ],
      [
        "の戦い",
        -9.12521806269649
      ],
      [
        "ファイ",
        -9.126274813088209
      ],
      [
        "様々な",
        -9.127066203444148
      ],
      [
        "支配",
        -9.127719123511854
      ],
      [
        "高等学校",
        -9.12817979963836
      ],
      [
        "支援",
        -9.128673730915548
      ],
      [
        "仏",
        -9.130431937887678
      ],
      [
        "仕",
        -9.131137532413563
      ],
      [
        "程度",
        -9.131673530509442
      ],
      [
        "講",
        -9.132170739281468
      ],
      [
        "歴",
        -9.13356178977037
      ],
      [
        "救",
        -9.13453412888008
      ],
      [
        "運転",
        -9.134660604735457
      ],
      [
        "自動車",
        -9.135768814921155
      ],
      [
        "提供",
        -9.136612982108678
      ],
      [
        "大統領",
        -9.136738507046287
      ],
      [
        "陣",
        -9.138985826604976
      ],
      [
        "奈",
        -9.139573054417282
      ],
      [
        "百",
        -9.141611451453912
      ],
      [
        "祖",
        -9.14265185043273
      ],
      [
        "以来",
        -9.143040617535926
      ],
      [
        "給",
        -9.143812775971158
      ],
      [
        "主張",
        -9.143875747159129
      ],
      [
        "ファー",
        -9.144405489466065
      ],
      [
        "老",
        -9.145306823672495
      ],
      [
        "探",
        -9.148877551474982
      ],
      [
        "辞",
        -9.149371749599162
      ],
      [
        "違",
        -9.149936514956176
      ],
      [
        "早",
        -9.150453510195584
      ],
      [
        "遊",
        -9.15079640629011
      ],
      [
        "対象",
        -9.150881712295012
      ],
      [
        "ed",
        -9.151209514411027
      ],
      [
        "念",
        -9.151232952454741
      ],
      [
        "具",
        -9.151766173886699
      ],
      [
        "天皇",
        -9.153501895761208
      ],
      [
        "完成",
        -9.154683638368832
      ],
      [
        "逆",
        -9.155619662499472
      ],
      [
        "成功",
        -9.155735397085714
      ],
      [
        "布",
        -9.155962386264875
      ],
      [
        "周辺",
        -9.156103417419207
      ],
      [
        "展開",
        -9.156749925399108
      ],
      [
        "1990",
        -9.156809362423216
      ],
      [
        "六",
        -9.156834100523229
      ],
      [
        "デザイン",
        -9.157293554241031
      ],
      [
        "2014",
        -9.158151216480983
      ],
      [
        "朝鮮",
        -9.158526253514392
      ],
      [
        "可",
        -9.158910027241651
      ],
      [
        "銀",
        -9.159311128814942
      ],
      [
        "敷",
        -9.159547021467725
      ],
      [
        "殿",
        -9.161386414986584
      ],
      [
        "ていない",
        -9.162655059871527
      ],
      [
        " of ",
        -9.164145055275034
      ],
      [
        "専",
        -9.165007858359141
      ],
      [
        "警察",
        -9.16648619065555
      ],
      [
        "温",
        -9.166510923438052
      ],
      [
        "編成",
        -9.169149736376976
      ],
      [
        "結成",
        -9.169909018036284
      ],
      [
        "額",
        -9.170311366436518
      ],
      [
        "銃",
        -9.170957694005683
      ],
      [
        "舞台",
        -9.172458222169514
      ],
      [
        "羽",
        -9.172555106133801
      ],
      [
        "合わせ",
        -9.173093337733345
      ],
      [
        "指定",
        -9.17393879730283
      ],
      [
        "標",
        -9.176183243980198
      ],
      [
        "樹",
        -9.179724250752992
      ],
      [
        "できない",
        -9.180316441889872
      ],
      [
        "魔",
        -9.180703073592815
      ],
      [
        "ざ",
        -9.182050521301182
      ],
      [
        "運営",
        -9.182316813972157
      ],
      [
        "援",
        -9.182453072999339
      ],
      [
        "景",
        -9.183765338089142
      ],
      [
        "慶",
        -9.183890880896199
      ],
      [
        "陽",
        -9.185124786950238
      ],
      [
        "ていく",
        -9.185157292697282
      ],
      [
        "華",
        -9.185673120433666
      ],
      [
        "骨",
        -9.188732859560181
      ],
      [
        "適",
        -9.191187976209449
      ],
      [
        "を含む",
        -9.193710426288852
      ],
      [
        "到",
        -9.194197917500993
      ],
      [
        "象",
        -9.19531067692229
      ],
      [
        "異なる",
        -9.195400549233312
      ],
      [
        "駆",
        -9.195812148896803
      ],
      [
        "スポーツ",
        -9.196104313881978
      ],
      [
        "撮影",
        -9.19683758769458
      ],
      [
        "乱",
        -9.198426404893379
      ],
      [
        "状況",
        -9.199045742617924
      ],
      [
        "すべて",
        -9.199737571943706
      ],
      [
        "ほ",
        -9.199844522068013
      ],
      [
        "あるいは",
        -9.200225380595828
      ],
      [
        "測",
        -9.200268596952569
      ],
      [
        "漫画",
        -9.20060949356749
      ],
      [
        "サービス",
        -9.206395178197141
      ],
      [
        "焼",
        -9.20737435342707
      ],
      [
        "廃止",
        -9.208927456802833
      ],
      [
        "待",
        -9.20911759902624
      ],
      [
        "関連",
        -9.20929161987735
      ],
      [
        "就",
        -9.212451290792936
      ],
      [
        "岸",
        -9.212534252481591
      ],
      [
        "為",
        -9.214561345017334
      ],
      [
        "候補",
        -9.214990709020654
      ],
      [
        "幼",
        -9.21653096275425
      ],
      [
        "毛",
        -9.217483001246162
      ],
      [
        "打ち",
        -9.218306266335427
      ],
      [
        "災",
        -9.218478321207106
      ],
      [
        "アジア",
        -9.219211600354942
      ],
      [
        "聞",
        -9.22069776745613
      ],
      [
        "建築",
        -9.223268227878243
      ],
      [
        "項",
        -9.223491129205966
      ],
      [
        "栄",
        -9.225516111779594
      ],
      [
        "帝",
        -9.227681184669294
      ],
      [
        "里",
        -9.232345949705628
      ],
      [
        "及",
        -9.232635135630929
      ],
      [
        "子供",
        -9.232965658606133
      ],
      [
        "談",
        -9.233012157931052
      ],
      [
        "仮",
        -9.233528237031605
      ],
      [
        "湖",
        -9.234410488767228
      ],
      [
        "沿",
        -9.235323013504013
      ],
      [
        "ラジオ",
        -9.236585131071367
      ],
      [
        "はじめ",
        -9.237846384681735
      ],
      [
        "税",
        -9.238530781074733
      ],
      [
        "亡",
        -9.238704295657174
      ],
      [
        "輸送",
        -9.238965646143596
      ],
      [
        "復帰",
        -9.243035904287384
      ],
      [
        "統",
        -9.244620012045063
      ],
      [
        "察",
        -9.244924005628457
      ],
      [
        "整備",
        -9.247483057447324
      ],
      [
        "傷",
        -9.249783029011944
      ],
      [
        "ェ",
        -9.250055932694096
      ],
      [
        "孫",
        -9.250710007533632
      ],
      [
        "隣",
        -9.251082063915394
      ],
      [
        "ほぼ",
        -9.251638683768281
      ],
      [
        "値",
        -9.254166749168425
      ],
      [
        "爵",
        -9.254261124276129
      ],
      [
        "演奏",
        -9.255076996886174
      ],
      [
        "互",
        -9.257230051705877
      ],
      [
        "超",
        -9.258890103402733
      ],
      [
        "スーパー",
        -9.259170582103977
      ],
      [
        "自然",
        -9.25970692653342
      ],
      [
        "拠",
        -9.260180383025384
      ],
      [
        "宇宙",
        -9.260455335024679
      ],
      [
        "連邦",
        -9.263093685968176
      ],
      [
        "ニューヨーク",
        -9.263150326336007
      ],
      [
        "模",
        -9.263374624499932
      ],
      [
        "働",
        -9.263450607207684
      ],
      [
        "が多い",
        -9.265367886300869
      ],
      [
        "油",
        -9.270198245681586
      ],
      [
        "批判",
        -9.271561015938481
      ],
      [
        "算",
        -9.272180808124988
      ],
      [
        "疑",
        -9.276824566923885
      ],
      [
        "幕",
        -9.278298164331442
      ],
      [
        "巡",
        -9.280221304145414
      ],
      [
        "スペイン",
        -9.282475196175733
      ],
      [
        "占",
        -9.282574969526383
      ],
      [
        "浦",
        -9.282681428853637
      ],
      [
        "闘",
        -9.286556385901386
      ],
      [
        "紀",
        -9.287388356669952
      ],
      [
        "課",
        -9.287610564478326
      ],
      [
        "試験",
        -9.289299643266933
      ],
      [
        "を行い",
        -9.290047071952106
      ],
      [
        "構",
        -9.290213981082026
      ],
      [
        "経験",
        -9.290429545535915
      ],
      [
        "既",
        -9.290529142611577
      ],
      [
        "臣",
        -9.293054961572363
      ],
      [
        "願",
        -9.294339062124271
      ],
      [
        "ぼ",
        -9.29437514850429
      ],
      [
        "魚",
        -9.298370078885315
      ],
      [
        "静",
        -9.30085172631744
      ],
      [
        "精",
        -9.301258893131141
      ],
      [
        "てきた",
        -9.302410397311858
      ],
      [
        "企画",
        -9.303301063060397
      ],
      [
        "黄",
        -9.304839836446527
      ],
      [
        "招",
        -9.30504774626061
      ],
      [
        "ヴォ",
        -9.3054092388589
      ],
      [
        "片",
        -9.306666299858506
      ],
      [
        "非常に",
        -9.307167545485425
      ],
      [
        "湾",
        -9.309113395809394
      ],
      [
        "欠",
        -9.309957720805125
      ],
      [
        "折",
        -9.310817126706585
      ],
      [
        "避",
        -9.311747045754366
      ],
      [
        "損",
        -9.311840085238057
      ],
      [
        "肉",
        -9.31211925563849
      ],
      [
        "距離",
        -9.312917034396824
      ],
      [
        "株式会社",
        -9.314168993757718
      ],
      [
        "庫",
        -9.314285209031956
      ],
      [
        "至",
        -9.314902287168412
      ],
      [
        "処",
        -9.315282930173229
      ],
      [
        "聴",
        -9.316549871395255
      ],
      [
        "博",
        -9.31819304270972
      ],
      [
        "核",
        -9.320061645287588
      ],
      [
        "報告",
        -9.320524073001327
      ],
      [
        "滅",
        -9.322192416860732
      ],
      [
        "辺",
        -9.326997060192703
      ],
      [
        "臨",
        -9.328990065690848
      ],
      [
        "1999",
        -9.330051873183674
      ],
      [
        "因",
        -9.331424611760736
      ],
      [
        "納",
        -9.332498383757372
      ],
      [
        "詳",
        -9.3346616518476
      ],
      [
        "抗",
        -9.33849269491315
      ],
      [
        "竹",
        -9.341634897694634
      ],
      [
        "写",
        -9.342371210369377
      ],
      [
        "塚",
        -9.342426036976368
      ],
      [
        "停",
        -9.343347769234722
      ],
      [
        "罪",
        -9.343635814445019
      ],
      [
        "漢",
        -9.344274466338064
      ],
      [
        "”",
        -9.345861558325668
      ],
      [
        "裏",
        -9.351484702787936
      ],
      [
        "伯",
        -9.351968852932327
      ],
      [
        "旅",
        -9.353141464284478
      ],
      [
        "競技",
        -9.354556269446748
      ],
      [
        "担",
        -9.35569560307811
      ],
      [
        "なければ",
        -9.356241855525761
      ],
      [
        "刻",
        -9.358211131101656
      ],
      [
        "秒",
        -9.359454518150148
      ],
      [
        "時点で",
        -9.359899469455408
      ],
      [
        "散",
        -9.35991618425837
      ],
      [
        "詩",
        -9.361163648984974
      ],
      [
        "イベント",
        -9.362227512830284
      ],
      [
        "被",
        -9.363587634155461
      ],
      [
        "故",
        -9.36363572311557
      ],
      [
        "完",
        -9.364042697443336
      ],
      [
        "酒",
        -9.365424758176184
      ],
      [
        "に伴い",
        -9.365674266218056
      ],
      [
        "登録",
        -9.365762683154374
      ],
      [
        "浜",
        -9.36593703748227
      ],
      [
        "採",
        -9.369231484443743
      ],
      [
        "苦",
        -9.369334471034682
      ],
      [
        "翼",
        -9.37101122739781
      ],
      [
        "監",
        -9.371770732101437
      ],
      [
        "暗",
        -9.374125609201853
      ],
      [
        "固",
        -9.374708333308952
      ],
      [
        "ゃ",
        -9.377322929272069
      ],
      [
        "背",
        -9.377594113192274
      ],
      [
        "環",
        -9.378681534029512
      ],
      [
        "唱",
        -9.378815444100223
      ],
      [
        "染",
        -9.379138835232158
      ],
      [
        "巨",
        -9.382253714401381
      ],
      [
        "舞",
        -9.382348254378078
      ],
      [
        "ていった",
        -9.385734231562537
      ],
      [
        "礼",
        -9.387006991222261
      ],
      [
        "七",
        -9.387609015547143
      ],
      [
        "由",
        -9.389669184193771
      ],
      [
        "申",
        -9.392287033660338
      ],
      [
        "オリンピック",
        -9.39264003108136
      ],
      [
        "房",
        -9.394255314699938
      ],
      [
        "暴",
        -9.3950639366753
      ],
      [
        "幸",
        -9.395847913246696
      ],
      [
        "によれば",
        -9.396005524577346
      ],
      [
        "了",
        -9.39760512778682
      ],
      [
        "兄",
        -9.399219428306163
      ],
      [
        "扱",
        -9.399530731388973
      ],
      [
        "づ",
        -9.399708114544033
      ],
      [
        "払",
        -9.40181103579097
      ],
      [
        "枠",
        -9.402091033756436
      ],
      [
        "雷",
        -9.403798171022165
      ],
      [
        "余",
        -9.405329427540886
      ],
      [
        "喜",
        -9.406044817954335
      ],
      [
        "1998",
        -9.407219453168738
      ],
      [
        "宅",
        -9.407550259028861
      ],
      [
        "飾",
        -9.41027093391793
      ],
      [
        "宣",
        -9.41109251532646
      ],
      [
        "績",
        -9.412353483294304
      ],
      [
        "+",
        -9.413587473362506
      ],
      [
        "還",
        -9.41358747336252
      ],
      [
        "北海道",
        -9.41521445066546
      ],
      [
        "厳",
        -9.415985308725531
      ],
      [
        "縁",
        -9.416114387618721
      ],
      [
        "季",
        -9.41996860486286
      ],
      [
        "我",
        -9.422927532464403
      ],
      [
        "香",
        -9.42429598922663
      ],
      [
        "競",
        -9.424842919394024
      ],
      [
        "訴",
        -9.425894601260923
      ],
      [
        "登",
        -9.426385235592313
      ],
      [
        "ォ",
        -9.427975211069851
      ],
      [
        "籍",
        -9.428186350883639
      ],
      [
        "飛",
        -9.429675525305102
      ],
      [
        "混",
        -9.43013123945558
      ],
      [
        "瀬",
        -9.43135902150054
      ],
      [
        "掲載",
        -9.4323275030253
      ],
      [
        "岐",
        -9.43248686088982
      ],
      [
        "紹介",
        -9.432495705346335
      ],
      [
        "冷",
        -9.433747348707799
      ],
      [
        "督",
        -9.434477157245112
      ],
      [
        "授",
        -9.434934585843637
      ],
      [
        "純",
        -9.436589268915217
      ],
      [
        "を持って",
        -9.438419510539724
      ],
      [
        "貨",
        -9.438863494749773
      ],
      [
        "縮",
        -9.43891089403944
      ],
      [
        "譲",
        -9.442297454232216
      ],
      [
        "益",
        -9.443835773259211
      ],
      [
        "Q",
        -9.443888860973397
      ],
      [
        "請",
        -9.448766199992429
      ],
      [
        "触",
        -9.44939873676662
      ],
      [
        "壁",
        -9.451108435715046
      ],
      [
        "誘",
        -9.452794280374322
      ],
      [
        "繰",
        -9.455637210504984
      ],
      [
        "免",
        -9.457761266905296
      ],
      [
        "児",
        -9.458195919055338
      ],
      [
        "繁",
        -9.4616446098379
      ],
      [
        "態",
        -9.466180782259162
      ],
      [
        "を果たした",
        -9.466222041062831
      ],
      [
        "幹",
        -9.466383240609948
      ],
      [
        "券",
        -9.467334988156098
      ],
      [
        "ヶ",
        -9.46755612074652
      ],
      [
        "医",
        -9.467654237727404
      ],
      [
        "1997",
        -9.468555075861289
      ],
      [
        "注",
        -9.469101175793261
      ],
      [
        "封",
        -9.469756428599066
      ],
      [
        "呼",
        -9.47001094008093
      ],
      [
        "閉",
        -9.476012915436831
      ],
      [
        "弁",
        -9.477742315250934
      ],
      [
        "駐",
        -9.479281222460095
      ],
      [
        "裁",
        -9.47972024741258
      ],
      [
        "程",
        -9.480822041231386
      ],
      [
        "逃",
        -9.481000283651442
      ],
      [
        "査",
        -9.482993104108372
      ],
      [
        "圏",
        -9.488980914391757
      ],
      [
        "1996",
        -9.490681128636615
      ],
      [
        "排",
        -9.491538922765344
      ],
      [
        "雲",
        -9.492820384921595
      ],
      [
        "植",
        -9.493383922411207
      ],
      [
        "牧",
        -9.493936036228897
      ],
      [
        "株",
        -9.49538812196483
      ],
      [
        "君",
        -9.49594735054603
      ],
      [
        "併",
        -9.499037804606099
      ],
      [
        "秘",
        -9.50012254645605
      ],
      [
        "以外の",
        -9.501086008036825
      ],
      [
        "唯",
        -9.501527534393434
      ],
      [
        "徒",
        -9.501689662270044
      ],
      [
        "旗",
        -9.502005680321394
      ],
      [
        "奏",
        -9.502114322684005
      ],
      [
        "砂",
        -9.502962658594965
      ],
      [
        "隠",
        -9.503807812392768
      ],
      [
        "息",
        -9.508903642965876
      ],
      [
        "塩",
        -9.510311164734992
      ],
      [
        "1995",
        -9.51145937605654
      ],
      [
        "婚",
        -9.512699215780824
      ],
      [
        "宇",
        -9.515538674691314
      ],
      [
        "皮",
        -9.515744105621234
      ],
      [
        "康",
        -9.51647403457443
      ],
      [
        "The ",
        -9.518550288572685
      ],
      [
        "熊",
        -9.519487501905461
      ],
      [
        "ゅ",
        -9.519516131411029
      ],
      [
        "液",
        -9.520604660428907
      ],
      [
        "“",
        -9.522411941680334
      ],
      [
        "麻",
        -9.522957636449425
      ],
      [
        "塁",
        -9.5233878408358
      ],
      [
        "そこで",
        -9.524118443156771
      ],
      [
        "霊",
        -9.525921070444626
      ],
      [
        "訳",
        -9.5268039242135
      ],
      [
        "雑",
        -9.527021938546797
      ],
      [
        "仁",
        -9.527478231536012
      ],
      [
        "弱",
        -9.527766860981085
      ],
      [
        "価",
        -9.527887548994224
      ],
      [
        "名古屋",
        -9.528027869974018
      ],
      [
        "恐",
        -9.532106329407936
      ],
      [
        "茶",
        -9.532860422574121
      ],
      [
        "泉",
        -9.538575734258032
      ],
      [
        "てしまった",
        -9.539382508426248
      ],
      [
        "怪",
        -9.539731400911776
      ],
      [
        "阿",
        -9.542247015126359
      ],
      [
        "障",
        -9.542424035806832
      ],
      [
        "答",
        -9.543301944822218
      ],
      [
        "功",
        -9.545078255016174
      ],
      [
        "龍",
        -9.545532679981536
      ],
      [
        "濃",
        -9.546002943190604
      ],
      [
        "墓",
        -9.546120543555292
      ],
      [
        "明らか",
        -9.546169705175123
      ],
      [
        "操",
        -9.546736197338705
      ],
      [
        "例えば",
        -9.55077841920961
      ],
      [
        "ウォー",
        -9.551799665522521
      ],
      [
        "架",
        -9.553468527157642
      ],
      [
        "底",
        -9.555187886675157
      ],
      [
        "奥",
        -9.555306572232737
      ],
      [
        "メディア",
        -9.556890277274261
      ],
      [
        "隻",
        -9.561706736966105
      ],
      [
        "件",
        -9.564688217729081
      ],
      [
        "アフリカ",
        -9.564787783564347
      ],
      [
        "挑",
        -9.568869747871819
      ],
      [
        "j",
        -9.568869747871819
      ],
      [
        "隆",
        -9.570133837369028
      ],
      [
        "冬",
        -9.577054384783914
      ],
      [
        "九",
        -9.580421791456711
      ],
      [
        "健",
        -9.581387646832871
      ],
      [
        "済",
        -9.58206786854553
      ],
      [
        "昇",
        -9.582074856355666
      ],
      [
        "奉",
        -9.583839951228398
      ],
      [
        "即",
        -9.584145318052643
      ],
      [
        "ソフト",
        -9.584926833031327
      ],
      [
        "倍",
        -9.585275986795427
      ],
      [
        "効",
        -9.587393867517106
      ],
      [
        "オープン",
        -9.587698871192465
      ],
      [
        "抱",
        -9.590057238720107
      ],
      [
        "鉱",
        -9.591809952799856
      ],
      [
        "認められ",
        -9.594740053554833
      ],
      [
        "顔",
        -9.595355509157576
      ],
      [
        "...",
        -9.59538313999184
      ],
      [
        "筆",
        -9.596016892314285
      ],
      [
        "丘",
        -9.596900985085188
      ],
      [
        "途",
        -9.597575866775076
      ],
      [
        "沈",
        -9.599440747650693
      ],
      [
        "展",
        -9.604155627475231
      ],
      [
        "虫",
        -9.605444062827651
      ],
      [
        "炭",
        -9.6067865125312
      ],
      [
        "必",
        -9.608555654960137
      ],
      [
        "共和国",
        -9.608854193308344
      ],
      [
        "致",
        -9.611075677241772
      ],
      [
        "冠",
        -9.61126394502185
      ],
      [
        "伏",
        -9.61412369367872
      ],
      [
        "策",
        -9.61434823768866
      ],
      [
        "妹",
        -9.627046921218861
      ],
      [
        "整",
        -9.628130386530405
      ],
      [
        "束",
        -9.62947275110006
      ],
      [
        "荷",
        -9.630815870215852
      ],
      [
        "簡",
        -9.632577449045462
      ],
      [
        "討",
        -9.635161401602002
      ],
      [
        "恋",
        -9.635434593845996
      ],
      [
        "恵",
        -9.638299925319036
      ],
      [
        "承",
        -9.639179194549795
      ],
      [
        "弘",
        -9.639396717312628
      ],
      [
        "寛",
        -9.639622676834536
      ],
      [
        "替",
        -9.642682595397815
      ],
      [
        "ぬ",
        -9.642726712953587
      ],
      [
        "雨",
        -9.64353663945647
      ],
      [
        "善",
        -9.648745857670805
      ],
      [
        "雪",
        -9.649550570851165
      ],
      [
        "厚",
        -9.651704864765925
      ],
      [
        "葬",
        -9.652260511127615
      ],
      [
        "伴",
        -9.654536959507642
      ],
      [
        "第二次世界大戦",
        -9.654617265797018
      ],
      [
        "勤",
        -9.655424273749759
      ],
      [
        "午",
        -9.656060243821871
      ],
      [
        "刺",
        -9.657078139164962
      ],
      [
        "軸",
        -9.659149963110297
      ],
      [
        "陥",
        -9.660731381774301
      ],
      [
        "塔",
        -9.66162203002706
      ],
      [
        "掘",
        -9.664497304662836
      ],
      [
        "埋",
        -9.671871895859661
      ],
      [
        "踏",
        -9.67300615562654
      ],
      [
        "儀",
        -9.673907807986346
      ],
      [
        "主人公",
        -9.674922548840081
      ],
      [
        "飲",
        -9.675010934352173
      ],
      [
        "床",
        -9.675311998113033
      ],
      [
        "鎮",
        -9.677723776795375
      ],
      [
        "覇",
        -9.678126306026073
      ],
      [
        "彦",
        -9.678327631418899
      ],
      [
        "賛",
        -9.682531155111493
      ],
      [
        "犯",
        -9.68605592886737
      ],
      [
        "齢",
        -9.689056298284429
      ],
      [
        "柄",
        -9.69204568479909
      ],
      [
        "囲",
        -9.693691400593199
      ],
      [
        "太平洋",
        -9.696307687162742
      ],
      [
        "荒",
        -9.696717475051862
      ],
      [
        "貫",
        -9.6970251463246
      ],
      [
        "ョ",
        -9.697270676095744
      ],
      [
        "緑",
        -9.697401317589515
      ],
      [
        "施",
        -9.698183530925515
      ],
      [
        "迫",
        -9.698359483459631
      ],
      [
        "筋",
        -9.701926444866439
      ],
      [
        "オリジナル",
        -9.704679049642005
      ],
      [
        "浮",
        -9.705161412842578
      ],
      [
        "豪",
        -9.705575141752574
      ],
      [
        "誤",
        -9.706679256416518
      ],
      [
        "募",
        -9.71048397539286
      ],
      [
        "犬",
        -9.711420077808317
      ],
      [
        "?",
        -9.718241885235178
      ],
      [
        "浅",
        -9.721600234405852
      ],
      [
        "摩",
        -9.723037973545956
      ],
      [
        "億",
        -9.726926933794722
      ],
      [
        "衣",
        -9.72803349852491
      ],
      [
        "夢",
        -9.728174579558548
      ],
      [
        "矢",
        -9.729198012736422
      ],
      [
        "締",
        -9.734401757462454
      ],
      [
        "徴",
        -9.734719033161861
      ],
      [
        "盗",
        -9.734756926601037
      ],
      [
        "姉",
        -9.735112046546492
      ],
      [
        "充",
        -9.735325179062416
      ],
      [
        "棄",
        -9.736107053824513
      ],
      [
        "婦",
        -9.737387805373588
      ],
      [
        "スタジオ",
        -9.737638611689883
      ],
      [
        "緒",
        -9.739597396607167
      ],
      [
        "ユダヤ",
        -9.740204741151986
      ],
      [
        "剣",
        -9.740382620168443
      ],
      [
        "脈",
        -9.746902318710886
      ],
      [
        "快",
        -9.7469382589064
      ],
      [
        "貴",
        -9.74857980050596
      ],
      [
        "にあたる",
        -9.750291740357808
      ],
      [
        "候",
        -9.760248871544174
      ],
      [
        "侵",
        -9.760781576350695
      ],
      [
        "索",
        -9.76357269334304
      ],
      [
        "杉",
        -9.764303834504043
      ],
      [
        "双",
        -9.766427171868722
      ],
      [
        "仲",
        -9.767082890749753
      ],
      [
        "覧",
        -9.767710680790977
      ],
      [
        "削",
        -9.769032582318077
      ],
      [
        "威",
        -9.769620655476555
      ],
      [
        "脳",
        -9.770319441823412
      ],
      [
        "本塁打",
        -9.773489541073227
      ],
      [
        "暦",
        -9.773931483418535
      ],
      [
        "亜",
        -9.77418998631887
      ],
      [
        "尊",
        -9.777297244630809
      ],
      [
        "剤",
        -9.778743188824436
      ],
      [
        "縦",
        -9.781418129582837
      ],
      [
        "験",
        -9.781881791901668
      ],
      [
        "綱",
        -9.781976310671206
      ],
      [
        "取締役",
        -9.78205094217401
      ],
      [
        "吹",
        -9.783279946135774
      ],
      [
        "プロジェクト",
        -9.783466548166077
      ],
      [
        "竜",
        -9.783913754224923
      ],
      [
        "窓",
        -9.784212155913071
      ],
      [
        "図書館",
        -9.785220676703668
      ],
      [
        "輸",
        -9.785632149289013
      ],
      [
        "織",
        -9.787415099285447
      ],
      [
        "署",
        -9.787874821416606
      ],
      [
        "コンピュータ",
        -9.790536790686195
      ],
      [
        "雇",
        -9.791889233650569
      ],
      [
        "易",
        -9.795302204810339
      ],
      [
        "潜",
        -9.796596532815354
      ],
      [
        "レギュラー",
        -9.797392971026623
      ],
      [
        "禁",
        -9.798228349534776
      ],
      [
        "露",
        -9.798412113751334
      ],
      [
        "ぜ",
        -9.801255374700917
      ],
      [
        "→",
        -9.801825467121944
      ],
      [
        "序",
        -9.802243209799094
      ],
      [
        "ウィリアム",
        -9.808952523328385
      ],
      [
        "献",
        -9.809855138646947
      ],
      [
        "託",
        -9.811018040532115
      ],
      [
        "裂",
        -9.815780960288611
      ],
      [
        "ァ",
        -9.81597210168128
      ],
      [
        "チャンピオン",
        -9.817669466971362
      ],
      [
        "沼",
        -9.82029590197018
      ],
      [
        "奇",
        -9.820992321242628
      ],
      [
        "脚",
        -9.822083481045897
      ],
      [
        "労",
        -9.82450339742226
      ],
      [
        "李",
        -9.824909028463473
      ],
      [
        "オーストラリア",
        -9.82704836186126
      ],
      [
        "頂",
        -9.829075214452414
      ],
      [
        "札",
        -9.831686661258844
      ],
      [
        "戒",
        -9.832592972970199
      ],
      [
        "稿",
        -9.833298012070227
      ],
      [
        "廷",
        -9.835455383268348
      ],
      [
        "艇",
        -9.836870005191011
      ],
      [
        "狭",
        -9.836948654004425
      ],
      [
        "炎",
        -9.84318153873545
      ],
      [
        "径",
        -9.844646769474194
      ],
      [
        "しばしば",
        -9.848737075659166
      ],
      [
        "敬",
        -9.848975780563212
      ],
      [
        "依",
        -9.85129011417583
      ],
      [
        "寿",
        -9.853603479165008
      ],
      [
        "牛",
        -9.854483567230496
      ],
      [
        "潟",
        -9.855564734996744
      ],
      [
        "享",
        -9.856647072952015
      ],
      [
        "殖",
        -9.85712848832241
      ],
      [
        "菌",
        -9.85789120362563
      ],
      [
        "笑",
        -9.85937816286738
      ],
      [
        "僚",
        -9.86179415792172
      ],
      [
        "網",
        -9.862036078774429
      ],
      [
        "歯",
        -9.863165817238963
      ],
      [
        "ィ",
        -9.864514797557511
      ],
      [
        "貞",
        -9.865024591387384
      ],
      [
        "鏡",
        -9.86826549438368
      ],
      [
        "を通じて",
        -9.876980174672518
      ],
      [
        "漁",
        -9.878748540293643
      ],
      [
        "征",
        -9.878997943561808
      ],
      [
        "才",
        -9.883475223980042
      ],
      [
        "鹿",
        -9.884093349281452
      ],
      [
        "杯",
        -9.885413448843218
      ],
      [
        "干",
        -9.8858263222414
      ],
      [
        "堀",
        -9.886817914447613
      ],
      [
        "鶴",
        -9.89162452034053
      ],
      [
        "滞",
        -9.89612050027138
      ],
      [
        "姓",
        -9.89925464408174
      ],
      [
        "顧",
        -9.905089358195037
      ],
      [
        "卵",
        -9.905510437427253
      ],
      [
        "伸",
        -9.90594396883346
      ],
      [
        "込",
        -9.907815390822758
      ],
      [
        "桜",
        -9.907956199678333
      ],
      [
        "憲",
        -9.908408494265402
      ],
      [
        "慮",
        -9.90956184513323
      ],
      [
        "贈",
        -9.910450282810524
      ],
      [
        "柔",
        -9.912441555764097
      ],
      [
        "茂",
        -9.912526378802072
      ],
      [
        "ャ",
        -9.913523446396585
      ],
      [
        "遂",
        -9.914989381936543
      ],
      [
        "乳",
        -9.916138024962349
      ],
      [
        "執",
        -9.918841580687067
      ],
      [
        "腹",
        -9.919122147393773
      ],
      [
        "磁",
        -9.919976391973087
      ],
      [
        "陰",
        -9.920617554636543
      ],
      [
        "エネルギー",
        -9.924215683334099
      ],
      [
        "侯",
        -9.924730759089632
      ],
      [
        "芝",
        -9.926750701326757
      ],
      [
        "毒",
        -9.928171400721691
      ],
      [
        "述",
        -9.928635216307624
      ],
      [
        "郊",
        -9.929594121375333
      ],
      [
        "銅",
        -9.930155143312973
      ],
      [
        "輝",
        -9.932964983919703
      ],
      [
        "勧",
        -9.935522308359275
      ],
      [
        "那",
        -9.935912984233436
      ],
      [
        "借",
        -9.936347247620933
      ],
      [
        "禄",
        -9.942665351425921
      ],
      [
        "庭",
        -9.944023054074373
      ],
      [
        "耐",
        -9.946168365407074
      ],
      [
        "智",
        -9.950079942494222
      ],
      [
        "ミュージック",
        -9.953785856346862
      ],
      [
        "沖",
        -9.954871650756704
      ],
      [
        "響",
        -9.95533997084936
      ],
      [
        "微",
        -9.955555415957292
      ],
      [
        "眼",
        -9.955688259246667
      ],
      [
        "拝",
        -9.959726248403305
      ],
      [
        "揚",
        -9.960660412172151
      ],
      [
        "届",
        -9.96360204957468
      ],
      [
        "姫",
        -9.964539842703584
      ],
      [
        "刀",
        -9.967268906673224
      ],
      [
        "却",
        -9.967388140323042
      ],
      [
        "俗",
        -9.968703530666545
      ],
      [
        "いわゆる",
        -9.96910741549025
      ],
      [
        "灯",
        -9.969735939412352
      ],
      [
        "痛",
        -9.973966463959705
      ],
      [
        "謝",
        -9.974327336372609
      ],
      [
        "氷",
        -9.975094622923933
      ],
      [
        "範",
        -9.975258729280291
      ],
      [
        "票",
        -9.975972117831828
      ],
      [
        "診",
        -9.976314465850807
      ],
      [
        "夕",
        -9.977988522887935
      ],
      [
        "唐",
        -9.979982948225173
      ],
      [
        "欧",
        -9.981762428447116
      ],
      [
        "喫",
        -9.982117760082089
      ],
      [
        "壊",
        -9.984754070545508
      ],
      [
        "録",
        -9.984828416957253
      ],
      [
        "裕",
        -9.985488217144804
      ],
      [
        "握",
        -9.988732747706072
      ],
      [
        "劉",
        -9.988824295551312
      ],
      [
        "稲",
        -9.989144778930683
      ],
      [
        "顕",
        -9.9910239619054
      ],
      [
        "尉",
        -9.992814760436751
      ],
      [
        "須",
        -9.994792939610427
      ],
      [
        "湯",
        -9.996175411789856
      ],
      [
        "腕",
        -9.996590521799893
      ],
      [
        "勇",
        -9.99834511072946
      ],
      [
        "羅",
        -10.000010197490225
      ],
      [
        "載",
        -10.00061688864994
      ],
      [
        "鎌",
        -10.000704802750722
      ],
      [
        "溶",
        -10.005859932130344
      ],
      [
        "拓",
        -10.008657593246314
      ],
      [
        "柳",
        -10.013525491177461
      ],
      [
        "荘",
        -10.017474627735334
      ],
      [
        "郵",
        -10.01752173532908
      ],
      [
        "亀",
        -10.020493996433466
      ],
      [
        "塗",
        -10.026893032345471
      ],
      [
        "供",
        -10.027399121360247
      ],
      [
        "q",
        -10.02879693353661
      ],
      [
        "滑",
        -10.02975024517468
      ],
      [
        "詰",
        -10.030179532087942
      ],
      [
        "覆",
        -10.032424362757482
      ],
      [
        "岳",
        -10.032950477175486
      ],
      [
        "晴",
        -10.033907758569454
      ],
      [
        "隔",
        -10.035921037297182
      ],
      [
        "委",
        -10.037795649012224
      ],
      [
        "柱",
        -10.039237391388617
      ],
      [
        "趣",
        -10.04440199404401
      ],
      [
        "如",
        -10.04600021212895
      ],
      [
        "尚",
        -10.047552442558427
      ],
      [
        "幾",
        -10.049155707731737
      ],
      [
        "カリフォルニア",
        -10.05012863608207
      ],
      [
        "飯",
        -10.051297400973715
      ],
      [
        "掲",
        -10.055549220954765
      ],
      [
        "薄",
        -10.059812047114127
      ],
      [
        "孝",
        -10.061484329430565
      ],
      [
        "償",
        -10.06173048933723
      ],
      [
        "洗",
        -10.061730489337233
      ],
      [
        "彩",
        -10.062124471268326
      ],
      [
        "蒸",
        -10.062469332834391
      ],
      [
        "誰",
        -10.064738529476447
      ],
      [
        "律",
        -10.06579438972983
      ],
      [
        "怒",
        -10.069193210537302
      ],
      [
        "勲",
        -10.073518347778485
      ],
      [
        "穴",
        -10.074116389210557
      ],
      [
        "包",
        -10.074752877424054
      ],
      [
        "陵",
        -10.074864444302134
      ],
      [
        "叙",
        -10.075613059399076
      ],
      [
        "撤",
        -10.079068047944125
      ],
      [
        "晩",
        -10.081622241455582
      ],
      [
        "箱",
        -10.084036061741521
      ],
      [
        "慣",
        -10.085245160354521
      ],
      [
        "繋",
        -10.085295571202936
      ],
      [
        "尽",
        -10.085598089671409
      ],
      [
        "潮",
        -10.086960556450993
      ],
      [
        "丹",
        -10.088072088711213
      ],
      [
        "鳴",
        -10.091160542383156
      ],
      [
        "鑑",
        -10.092175230073051
      ],
      [
        "×",
        -10.092276755492547
      ],
      [
        "嫌",
        -10.092784537258748
      ],
      [
        "泊",
        -10.094360301321565
      ],
      [
        "阪",
        -10.099602113014019
      ],
      [
        "貸",
        -10.100637113110007
      ],
      [
        "債",
        -10.101149159000373
      ],
      [
        "飼",
        -10.101405280300785
      ],
      [
        "メキシコ",
        -10.102430435512225
      ],
      [
        "往",
        -10.103302619467577
      ],
      [
        "碑",
        -10.103867388184009
      ],
      [
        "也",
        -10.107056609270773
      ],
      [
        "埼",
        -10.107314248268377
      ],
      [
        "浴",
        -10.109635991133112
      ],
      [
        "句",
        -10.110876461636911
      ],
      [
        "硬",
        -10.11097990367065
      ],
      [
        "緊",
        -10.111238555578296
      ],
      [
        "俊",
        -10.1114455252838
      ],
      [
        "旬",
        -10.111859593248527
      ],
      [
        "昌",
        -10.11325833978513
      ],
      [
        "玄",
        -10.113569438224301
      ],
      [
        "塞",
        -10.114191925599988
      ],
      [
        "吸",
        -10.1146069537592
      ],
      [
        ";",
        -10.115178323769237
      ],
      [
        "枝",
        -10.116945889408013
      ],
      [
        "プロデューサー",
        -10.118091275599511
      ],
      [
        "輩",
        -10.1203859907905
      ],
      [
        "維",
        -10.120708033723803
      ],
      [
        "渋",
        -10.122215100262679
      ],
      [
        "梅",
        -10.122267409725461
      ],
      [
        "摂",
        -10.1239427589298
      ],
      [
        "嘉",
        -10.125830887883035
      ],
      [
        "騒",
        -10.126828839538716
      ],
      [
        "鬼",
        -10.12719675712924
      ],
      [
        "紅",
        -10.12988139315699
      ],
      [
        "祝",
        -10.129986820004008
      ],
      [
        "煙",
        -10.130883397248606
      ],
      [
        "アカデミー",
        -10.131200031984179
      ],
      [
        "療",
        -10.133875413828878
      ],
      [
        "識",
        -10.134935947678201
      ],
      [
        "筒",
        -10.138404021629986
      ],
      [
        "スウェーデン",
        -10.138510358301861
      ],
      [
        "遅",
        -10.14206506512356
      ],
      [
        "偽",
        -10.143039826808591
      ],
      [
        "燃",
        -10.14339567433685
      ],
      [
        "促",
        -10.143894733221495
      ],
      [
        "塾",
        -10.144482905626298
      ],
      [
        "邦",
        -10.150251900848968
      ],
      [
        "斎",
        -10.153347259359471
      ],
      [
        "革",
        -10.15552818083291
      ],
      [
        "鋼",
        -10.15615723662046
      ],
      [
        "融",
        -10.161880120539095
      ],
      [
        "擁",
        -10.161909837075791
      ],
      [
        "弥",
        -10.16316242410343
      ],
      [
        "遇",
        -10.163216920016236
      ],
      [
        "狙",
        -10.163762042545885
      ],
      [
        "震",
        -10.167003715674861
      ],
      [
        "僧",
        -10.16714845100287
      ],
      [
        "弦",
        -10.168791161844142
      ],
      [
        "影",
        -10.168991441166757
      ],
      [
        "澤",
        -10.176051320784559
      ],
      [
        "衰",
        -10.178427800293042
      ],
      [
        "釈",
        -10.181020648607216
      ],
      [
        "菱",
        -10.184755705728538
      ],
      [
        "随",
        -10.18525698679048
      ],
      [
        "欲",
        -10.185702781007995
      ],
      [
        "迷",
        -10.187097170212311
      ],
      [
        "斉",
        -10.189164441034041
      ],
      [
        "]",
        -10.189500077207496
      ],
      [
        "押",
        -10.191017040616023
      ],
      [
        "[",
        -10.192077037261502
      ],
      [
        "獣",
        -10.19308722338974
      ],
      [
        "珍",
        -10.196011284290961
      ],
      [
        "旨",
        -10.196630932800936
      ],
      [
        "ぞ",
        -10.197363348220222
      ],
      [
        "邸",
        -10.200639746253898
      ],
      [
        "悲",
        -10.20409681968753
      ],
      [
        "研",
        -10.205562704274271
      ],
      [
        "徹",
        -10.207394994465677
      ],
      [
        "看",
        -10.209733042975373
      ],
      [
        "斜",
        -10.214024158381308
      ],
      [
        "該",
        -10.21408149783085
      ],
      [
        "獄",
        -10.21718272070317
      ],
      [
        "閣",
        -10.218943117876607
      ],
      [
        "駒",
        -10.218967407417022
      ],
      [
        "冒",
        -10.220062824072812
      ],
      [
        "紋",
        -10.22544197984947
      ],
      [
        "恒",
        -10.225906057358612
      ],
      [
        "貧",
        -10.226834858980865
      ],
      [
        "又",
        -10.229335296405504
      ],
      [
        "賃",
        -10.231433504955543
      ],
      [
        "洞",
        -10.232425858080886
      ],
      [
        "奨",
        -10.235115996840973
      ],
      [
        "乾",
        -10.240223739993704
      ],
      [
        "附",
        -10.24287594877341
      ],
      [
        "緩",
        -10.245416870780296
      ],
      [
        "紛",
        -10.24915131495329
      ],
      [
        "é",
        -10.24980479326305
      ],
      [
        "刷",
        -10.251708252778998
      ],
      [
        "梁",
        -10.252720941255067
      ],
      [
        "インタビュー",
        -10.252840148531034
      ],
      [
        "曹",
        -10.254629964951345
      ],
      [
        "狩",
        -10.255048050127233
      ],
      [
        "旋",
        -10.256422990563419
      ],
      [
        "彰",
        -10.25750035113416
      ],
      [
        "韓",
        -10.25772574356948
      ],
      [
        "頻",
        -10.25959854745512
      ],
      [
        "豆",
        -10.260258890857477
      ],
      [
        "呉",
        -10.262844425337757
      ],
      [
        "括",
        -10.264411021024173
      ],
      [
        "踊",
        -10.264591940093483
      ],
      [
        "垣",
        -10.26519524016288
      ],
      [
        "需",
        -10.267249187179681
      ],
      [
        "糸",
        -10.267975118066426
      ],
      [
        "巣",
        -10.26906500343328
      ],
      [
        "浪",
        -10.271855674700868
      ],
      [
        "泰",
        -10.272098710215554
      ],
      [
        "阻",
        -10.27270655754284
      ],
      [
        "畑",
        -10.276605554226165
      ],
      [
        "–",
        -10.280703669936523
      ],
      [
        "卿",
        -10.28076496322491
      ],
      [
        "にもかかわらず",
        -10.282605511006913
      ],
      [
        "透",
        -10.282789752233622
      ],
      [
        "批",
        -10.283647797952053
      ],
      [
        "罰",
        -10.284080392200954
      ],
      [
        "崩",
        -10.284587931501374
      ],
      [
        "棋",
        -10.284695568621993
      ],
      [
        "о",
        -10.285064856208779
      ],
      [
        "妙",
        -10.285372700072708
      ],
      [
        "а",
        -10.28592705795553
      ],
      [
        "誠",
        -10.289321494343396
      ],
      [
        "努",
        -10.290063632353043
      ],
      [
        "箇",
        -10.292169352636217
      ],
      [
        "━",
        -10.293658417592075
      ],
      [
        "寝",
        -10.294590210428536
      ],
      [
        "卒",
        -10.300173699024503
      ],
      [
        "膜",
        -10.301700353580497
      ],
      [
        "臓",
        -10.301700353580497
      ],
      [
        "衝",
        -10.303799709797923
      ],
      [
        "偵",
        -10.305651440563095
      ],
      [
        "笠",
        -10.307160732425372
      ],
      [
        "幡",
        -10.309996809197768
      ],
      [
        "練",
        -10.310032957270659
      ],
      [
        "糖",
        -10.310501843771638
      ],
      [
        "撲",
        -10.310817619952001
      ],
      [
        "冊",
        -10.311449471614049
      ],
      [
        "懸",
        -10.315883647312972
      ],
      [
        "譜",
        -10.32008252741896
      ],
      [
        "髪",
        -10.320720262206468
      ],
      [
        "#",
        -10.320911661976979
      ],
      [
        "さまざまな",
        -10.323723075607711
      ],
      [
        "獲",
        -10.323783374563051
      ],
      [
        "庄",
        -10.324939542877097
      ],
      [
        "菊",
        -10.328276408679542
      ],
      [
        "恩",
        -10.328726453691484
      ],
      [
        "掛",
        -10.329014737976971
      ],
      [
        "呂",
        -10.329048038463888
      ],
      [
        "筑",
        -10.32924103897909
      ],
      [
        "滝",
        -10.329627151793046
      ],
      [
        "粉",
        -10.329884643184512
      ],
      [
        "宰",
        -10.330657515408978
      ],
      [
        "遭",
        -10.336019631749895
      ],
      [
        "浄",
        -10.336408371266785
      ],
      [
        "控",
        -10.336862091782578
      ],
      [
        "肥",
        -10.33939373870347
      ],
      [
        "況",
        -10.342136348676856
      ],
      [
        "熟",
        -10.345914579517855
      ],
      [
        "紫",
        -10.34598000313578
      ],
      [
        "彫",
        -10.348666063450004
      ],
      [
        "陳",
        -10.349322296042141
      ],
      [
        "謀",
        -10.35166108534317
      ],
      [
        "梨",
        -10.352214846458773
      ],
      [
        "脇",
        -10.356833944709123
      ],
      [
        "抑",
        -10.357098367435816
      ],
      [
        "添",
        -10.358157615440309
      ],
      [
        "ロサンゼルス",
        -10.360478263645758
      ],
      [
        "稼",
        -10.362737776117205
      ],
      [
        "捨",
        -10.364202538854004
      ],
      [
        "憶",
        -10.367138516673387
      ],
      [
        "勃",
        -10.369011364282088
      ],
      [
        "患",
        -10.37457984277074
      ],
      [
        "誇",
        -10.375189819849549
      ],
      [
        "肩",
        -10.377617905889622
      ],
      [
        "雅",
        -10.377752972578955
      ],
      [
        "伐",
        -10.378293421840343
      ],
      [
        "ぱ",
        -10.37896939442134
      ],
      [
        "赴",
        -10.383306473016995
      ],
      [
        "銭",
        -10.38459767265223
      ],
      [
        "汚",
        -10.387048737708177
      ],
      [
        "係",
        -10.387209439930889
      ],
      [
        "薦",
        -10.38793532304859
      ],
      [
        "耳",
        -10.390805059566476
      ],
      [
        "菜",
        -10.391694982954544
      ],
      [
        "灰",
        -10.392997066471333
      ],
      [
        "峰",
        -10.394919021964906
      ],
      [
        "晶",
        -10.396775841148376
      ],
      [
        "挟",
        -10.397671096355534
      ],
      [
        "脅",
        -10.402574759746887
      ],
      [
        "穂",
        -10.407433012698533
      ],
      [
        "棒",
        -10.408546792354484
      ],
      [
        "眠",
        -10.409104147717555
      ],
      [
        "悩",
        -10.413154291166512
      ],
      [
        "傍",
        -10.413364228186092
      ],
      [
        "傾",
        -10.413548197561061
      ],
      [
        "丁",
        -10.414048319676223
      ],
      [
        "逸",
        -10.41609742772795
      ],
      [
        "昭",
        -10.416118401803715
      ],
      [
        "胸",
        -10.417994028464278
      ],
      [
        "励",
        -10.418204984093972
      ],
      [
        "侍",
        -10.420105590043327
      ],
      [
        "普",
        -10.420432577470384
      ],
      [
        "棟",
        -10.421092513389741
      ],
      [
        "堅",
        -10.422857302778286
      ],
      [
        "遷",
        -10.423705509225675
      ],
      [
        "祀",
        -10.424766780019622
      ],
      [
        "噴",
        -10.424837571468013
      ],
      [
        "賢",
        -10.425687459970954
      ],
      [
        "峡",
        -10.427886354316094
      ],
      [
        "°",
        -10.428667770850518
      ],
      [
        "召",
        -10.429947771024743
      ],
      [
        "и",
        -10.431942144703939
      ],
      [
        "芳",
        -10.432940825101818
      ],
      [
        "麗",
        -10.438020973403649
      ],
      [
        "扉",
        -10.440031529495997
      ],
      [
        "袋",
        -10.440750566017769
      ],
      [
        "淡",
        -10.445436948060566
      ],
      [
        "揮",
        -10.447609378207888
      ],
      [
        "虎",
        -10.448259355490906
      ],
      [
        "粒",
        -10.449201930966309
      ],
      [
        "虜",
        -10.452180502001129
      ],
      [
        "祥",
        -10.452471569858243
      ],
      [
        "幣",
        -10.452835523858317
      ],
      [
        "劣",
        -10.453126782461478
      ],
      [
        "概",
        -10.455304996238365
      ],
      [
        "惑",
        -10.457814700079718
      ],
      [
        "阜",
        -10.45948273605935
      ],
      [
        "垂",
        -10.462051167792314
      ],
      [
        "銘",
        -10.46698635753582
      ],
      [
        "鎖",
        -10.467131227919793
      ],
      [
        "薩",
        -10.471278368414575
      ],
      [
        "預",
        -10.472985486767957
      ],
      [
        "虐",
        -10.475216551537992
      ],
      [
        "―",
        -10.477751123693924
      ],
      [
        "磨",
        -10.479768458507442
      ],
      [
        "驚",
        -10.48081608834049
      ],
      [
        "昼",
        -10.481115612847438
      ],
      [
        "挿",
        -10.482989676363568
      ],
      [
        "仙",
        -10.4846260116112
      ],
      [
        "帳",
        -10.486221304005387
      ],
      [
        "軒",
        -10.487049679683057
      ],
      [
        "拳",
        -10.488708492503738
      ],
      [
        "后",
        -10.489992189726909
      ],
      [
        "狂",
        -10.50108526400504
      ],
      [
        "〉",
        -10.502384958376963
      ],
      [
        "〈",
        -10.502767543123964
      ],
      [
        "寒",
        -10.504529320675694
      ],
      [
        "墜",
        -10.50883188964056
      ],
      [
        "湿",
        -10.50883188964056
      ],
      [
        "脂",
        -10.509371014730368
      ],
      [
        "屈",
        -10.516173499119272
      ],
      [
        "掃",
        -10.517725993123314
      ],
      [
        "○",
        -10.523647550023751
      ],
      [
        "坊",
        -10.525916366517656
      ],
      [
        "晋",
        -10.526778300436742
      ],
      [
        "偶",
        -10.530784275472254
      ],
      [
        "峠",
        -10.538289445789589
      ],
      [
        "拘",
        -10.53987668472363
      ],
      [
        "浸",
        -10.542341894718323
      ],
      [
        "困",
        -10.544873672463432
      ],
      [
        "崇",
        -10.545531817274842
      ],
      [
        "撮",
        -10.546612354083505
      ],
      [
        "妃",
        -10.550978148463116
      ],
      [
        "更",
        -10.556248187888086
      ],
      [
        "剛",
        -10.55936563260699
      ],
      [
        "媒",
        -10.560337961816476
      ],
      [
        "尋",
        -10.56050010864069
      ],
      [
        "栗",
        -10.56123009488408
      ],
      [
        "葛",
        -10.56220423953987
      ],
      [
        "皆",
        -10.565865757054134
      ],
      [
        "符",
        -10.566273421144352
      ],
      [
        "砦",
        -10.566518099393539
      ],
      [
        "措",
        -10.566681251492351
      ],
      [
        "軟",
        -10.568069120111776
      ],
      [
        "貯",
        -10.57068681558031
      ],
      [
        "希",
        -10.570714511840475
      ],
      [
        "泳",
        -10.579572471965362
      ],
      [
        "洲",
        -10.581475028580853
      ],
      [
        "е",
        -10.58197194357692
      ],
      [
        "躍",
        -10.583674427042952
      ],
      [
        "祈",
        -10.584958630160923
      ],
      [
        "敏",
        -10.588204305445068
      ],
      [
        "茨",
        -10.588454409656316
      ],
      [
        "祉",
        -10.591795123497546
      ],
      [
        "旦",
        -10.59221349853478
      ],
      [
        "暮",
        -10.59414896185718
      ],
      [
        "悟",
        -10.59523097703899
      ],
      [
        "疾",
        -10.595818767802063
      ],
      [
        "吾",
        -10.598678676382118
      ],
      [
        "甘",
        -10.599015674573744
      ],
      [
        "朱",
        -10.599268497767257
      ],
      [
        "販",
        -10.600423559403183
      ],
      [
        "孤",
        -10.602814750478927
      ],
      [
        "洪",
        -10.605609941184186
      ],
      [
        "酷",
        -10.606968002759494
      ],
      [
        "逐",
        -10.60756249930845
      ],
      [
        "珠",
        -10.60832791117445
      ],
      [
        ">",
        -10.611394483702178
      ],
      [
        "ぽ",
        -10.614984077742873
      ],
      [
        "険",
        -10.616562299470974
      ],
      [
        "偏",
        -10.616697947650183
      ],
      [
        "幻",
        -10.619618284703462
      ],
      [
        "輔",
        -10.6209955175435
      ],
      [
        "勅",
        -10.622892315110635
      ],
      [
        "宋",
        -10.62323757427401
      ],
      [
        "□",
        -10.625225130996066
      ],
      [
        "蓮",
        -10.625225131097137
      ],
      [
        "蘇",
        -10.62652349534
      ],
      [
        "函",
        -10.633476719647064
      ],
      [
        "賊",
        -10.635921815392775
      ],
      [
        "沙",
        -10.636096694071028
      ],
      [
        "啓",
        -10.638460554389306
      ],
      [
        "匠",
        -10.638986616388738
      ],
      [
        "否",
        -10.646678531416597
      ],
      [
        "卓",
        -10.646999338658604
      ],
      [
        "針",
        -10.647333039575772
      ],
      [
        "准",
        -10.64868045743956
      ],
      [
        "烈",
        -10.648680457439562
      ],
      [
        "哨",
        -10.650009655684899
      ],
      [
        "浩",
        -10.650275707477709
      ],
      [
        "掌",
        -10.651074287821311
      ],
      [
        "酵",
        -10.653206958464292
      ],
      [
        "桂",
        -10.653829845118652
      ],
      [
        "壇",
        -10.655165910160198
      ],
      [
        "旭",
        -10.65579001859659
      ],
      [
        "桃",
        -10.65579001859659
      ],
      [
        "犠",
        -10.656771548076005
      ],
      [
        "陶",
        -10.659901021300376
      ],
      [
        "昔",
        -10.660438487161477
      ],
      [
        "н",
        -10.662681042818138
      ],
      [
        "抽",
        -10.664478715315786
      ],
      [
        "懐",
        -10.666550041703367
      ],
      [
        "蓄",
        -10.666730359965467
      ],
      [
        "魏",
        -10.668806360348603
      ],
      [
        "猛",
        -10.670253080614417
      ],
      [
        "曽",
        -10.675060346104841
      ],
      [
        "忍",
        -10.676880431239969
      ],
      [
        "僕",
        -10.677335970606133
      ],
      [
        "竣",
        -10.679160206072225
      ],
      [
        "魂",
        -10.680896317618195
      ],
      [
        "童",
        -10.68090971834533
      ],
      [
        "猫",
        -10.681262199167874
      ],
      [
        "瞬",
        -10.682452239585773
      ],
      [
        "庶",
        -10.682543839842253
      ],
      [
        "耕",
        -10.687134583796444
      ],
      [
        "謡",
        -10.68842377776754
      ],
      [
        "辛",
        -10.68925342383224
      ],
      [
        "郭",
        -10.697680960276786
      ],
      [
        "堤",
        -10.700381651057707
      ],
      [
        "蘭",
        -10.701314617491269
      ],
      [
        "魅",
        -10.702715701224024
      ],
      [
        "叔",
        -10.703276684829559
      ],
      [
        "暫",
        -10.707400208780053
      ],
      [
        "牲",
        -10.709844852936836
      ],
      [
        "暖",
        -10.710221483043172
      ],
      [
        "搬",
        -10.710786694305504
      ],
      [
        "倫",
        -10.713239641427295
      ],
      [
        "咲",
        -10.713617552527927
      ],
      [
        "膨",
        -10.719208394339596
      ],
      [
        "妨",
        -10.719398463240003
      ],
      [
        "殻",
        -10.719968886794517
      ],
      [
        "駿",
        -10.720063989029418
      ],
      [
        "菅",
        -10.722063228079191
      ],
      [
        "貝",
        -10.723207447511863
      ],
      [
        "畿",
        -10.723302858255112
      ],
      [
        "拡",
        -10.725053219507164
      ],
      [
        "呈",
        -10.726169421775264
      ],
      [
        "亭",
        -10.72981223843566
      ],
      [
        "р",
        -10.730676957935456
      ],
      [
        "緯",
        -10.731103382808568
      ],
      [
        "猟",
        -10.73289019979178
      ],
      [
        "溝",
        -10.734818747709753
      ],
      [
        "茎",
        -10.738105839176626
      ],
      [
        "嫡",
        -10.739268573670357
      ],
      [
        "哲",
        -10.739790801330281
      ],
      [
        "朗",
        -10.73985044829234
      ],
      [
        "*",
        -10.74325148159424
      ],
      [
        "勉",
        -10.743835679069113
      ],
      [
        "嶋",
        -10.746371152657106
      ],
      [
        "析",
        -10.749292908912976
      ],
      [
        "祐",
        -10.752050482483469
      ],
      [
        "妖",
        -10.752836375740046
      ],
      [
        "鋭",
        -10.75332787284971
      ],
      [
        "盾",
        -10.753819611647577
      ],
      [
        "寮",
        -10.75401637489268
      ],
      [
        "慎",
        -10.755296280550274
      ],
      [
        "炉",
        -10.756577826465955
      ],
      [
        "<",
        -10.757367287205975
      ],
      [
        "丈",
        -10.757466013635042
      ],
      [
        "腰",
        -10.75786101684926
      ],
      [
        "弓",
        -10.759244758111674
      ],
      [
        "ぷ",
        -10.759442591832913
      ],
      [
        "麦",
        -10.759442591832913
      ],
      [
        "舟",
        -10.761224858752069
      ],
      [
        "怖",
        -10.764102986977052
      ],
      [
        "蜂",
        -10.764202380675494
      ],
      [
        "克",
        -10.765097368801323
      ],
      [
        "寧",
        -10.766491166626489
      ],
      [
        "遣",
        -10.766780845014537
      ],
      [
        "斬",
        -10.767288495616093
      ],
      [
        "謎",
        -10.76758765796351
      ],
      [
        "捉",
        -10.770284154152217
      ],
      [
        "牽",
        -10.770984434292295
      ],
      [
        "稚",
        -10.771484934802825
      ],
      [
        "☆",
        -10.773088221882734
      ],
      [
        "斐",
        -10.77338912459288
      ],
      [
        "釣",
        -10.77479453565473
      ],
      [
        "腐",
        -10.777812798419403
      ],
      [
        "菓",
        -10.780739137538516
      ],
      [
        "枢",
        -10.78124454541299
      ],
      [
        "唆",
        -10.782154923787855
      ],
      [
        "辰",
        -10.783775423457444
      ],
      [
        "桑",
        -10.784485218660029
      ],
      [
        "乃",
        -10.784891042233452
      ],
      [
        "寸",
        -10.784992523865283
      ],
      [
        "催",
        -10.786140663094994
      ],
      [
        "秦",
        -10.78692263417431
      ],
      [
        "尼",
        -10.78987579314081
      ],
      [
        "肢",
        -10.789977781922044
      ],
      [
        "揺",
        -10.793451604058596
      ],
      [
        "渓",
        -10.79447561725455
      ],
      [
        "鷹",
        -10.796526794834643
      ],
      [
        "禅",
        -10.796732144185766
      ],
      [
        "危",
        -10.798607452033337
      ],
      [
        "勘",
        -10.79919963117038
      ],
      [
        "誓",
        -10.800848011493743
      ],
      [
        "褐",
        -10.80105425021561
      ],
      [
        "胴",
        -10.802499113461717
      ],
      [
        "慰",
        -10.803635829507462
      ],
      [
        "揃",
        -10.80394606735869
      ],
      [
        "忘",
        -10.804566831953107
      ],
      [
        "肺",
        -10.804670330193638
      ],
      [
        "α",
        -10.808923007483802
      ],
      [
        "桁",
        -10.809442866093505
      ],
      [
        "瑞",
        -10.810795764623128
      ],
      [
        "舶",
        -10.812776376130886
      ],
      [
        "衡",
        -10.821790639771361
      ],
      [
        "捜",
        -10.823506042568274
      ],
      [
        "粘",
        -10.827598470241133
      ],
      [
        "縄",
        -10.829246873288499
      ],
      [
        "椎",
        -10.831524621290985
      ],
      [
        "柴",
        -10.831843634479268
      ],
      [
        "秩",
        -10.833227202174195
      ],
      [
        "軌",
        -10.836198958346703
      ],
      [
        "鼻",
        -10.83653422460037
      ],
      [
        "屯",
        -10.836641085040633
      ],
      [
        "泥",
        -10.837175558596405
      ],
      [
        "腸",
        -10.837710317966929
      ],
      [
        "柏",
        -10.83813833145548
      ],
      [
        "癌",
        -10.840281151151594
      ],
      [
        "訓",
        -10.844870520634608
      ],
      [
        "回衆議院議員総選挙",
        -10.845658375481214
      ],
      [
        "牡",
        -10.849872775490487
      ],
      [
        "粋",
        -10.85204091553224
      ],
      [
        "履",
        -10.852692275268032
      ],
      [
        "胞",
        -10.853729152757154
      ],
      [
        "宏",
        -10.853778818536785
      ],
      [
        "應",
        -10.85671839604531
      ],
      [
        "墳",
        -10.856841594915275
      ],
      [
        "昆",
        -10.857591044040923
      ],
      [
        "僅",
        -10.858027653772908
      ],
      [
        "妊",
        -10.861856142365731
      ],
      [
        "鮮",
        -10.863735081793898
      ],
      [
        "歓",
        -10.867130590058812
      ],
      [
        "喪",
        -10.8682329436941
      ],
      [
        "栃",
        -10.872211508920412
      ],
      [
        "繊",
        -10.875650225561072
      ],
      [
        "懲",
        -10.876762016213112
      ],
      [
        "蓋",
        -10.877095794587026
      ],
      [
        "錦",
        -10.877207078806922
      ],
      [
        "夷",
        -10.87820919446708
      ],
      [
        "》",
        -10.878766359624667
      ],
      [
        "雌",
        -10.879100807787975
      ],
      [
        "《",
        -10.87921231537049
      ],
      [
        "纂",
        -10.87921231537049
      ],
      [
        "均",
        -10.88086273174599
      ],
      [
        "盆",
        -10.881221580988283
      ],
      [
        "楊",
        -10.881668633244496
      ],
      [
        "畜",
        -10.882787139036358
      ],
      [
        "洛",
        -10.883906897284431
      ],
      [
        "拒",
        -10.88421928864582
      ],
      [
        "疎",
        -10.88570112260269
      ],
      [
        "虚",
        -10.8864871096174
      ],
      [
        "肝",
        -10.887611020945542
      ],
      [
        "孔",
        -10.888285974567392
      ],
      [
        "慕",
        -10.88986264024512
      ],
      [
        "國",
        -10.890088081264821
      ],
      [
        "磐",
        -10.892458285532209
      ],
      [
        "籠",
        -10.894381145527666
      ],
      [
        "趙",
        -10.89698856112749
      ],
      [
        "訂",
        -10.897102081390857
      ],
      [
        "班",
        -10.89710208139086
      ],
      [
        "匹",
        -10.897215614542537
      ],
      [
        "滋",
        -10.898351655560967
      ],
      [
        "尻",
        -10.899375197102652
      ],
      [
        "邪",
        -10.89960279312046
      ],
      [
        "釜",
        -10.899830440950003
      ],
      [
        "麓",
        -10.900058140614886
      ],
      [
        "腫",
        -10.90074155085773
      ],
      [
        "閥",
        -10.903936988665986
      ],
      [
        "凍",
        -10.904623055812383
      ],
      [
        "鍵",
        -10.905767548067677
      ],
      [
        "篇",
        -10.90737204098936
      ],
      [
        "鈴",
        -10.90867456313642
      ],
      [
        "尿",
        -10.909898599895923
      ],
      [
        "綿",
        -10.913469620850753
      ],
      [
        "賜",
        -10.913815881241643
      ],
      [
        "疫",
        -10.915895965192654
      ],
      [
        "戯",
        -10.917285095471785
      ],
      [
        "兆",
        -10.918908190139668
      ],
      [
        "с",
        -10.923793340878728
      ],
      [
        "慢",
        -10.924726557626643
      ],
      [
        "—",
        -10.926595607873663
      ],
      [
        "契",
        -10.927917777009586
      ],
      [
        "斗",
        -10.929757573263602
      ],
      [
        "乙",
        -10.93069637518561
      ],
      [
        "嵐",
        -10.931636059284921
      ],
      [
        "蒲",
        -10.933400350495646
      ],
      [
        "羊",
        -10.934578276303377
      ],
      [
        "剰",
        -10.937410972204287
      ],
      [
        "閲",
        -10.942625180847726
      ],
      [
        "慈",
        -10.944170959988421
      ],
      [
        "絞",
        -10.944408984386763
      ],
      [
        "但",
        -10.945480795849308
      ],
      [
        "в",
        -10.947986165803925
      ],
      [
        "燥",
        -10.948583608765185
      ],
      [
        "扇",
        -10.948703140201953
      ],
      [
        "絡",
        -10.949139449483567
      ],
      [
        "剥",
        -10.958070890194293
      ],
      [
        "噂",
        -10.958915892657838
      ],
      [
        "舷",
        -10.959157453139424
      ],
      [
        "践",
        -10.961092040524791
      ],
      [
        "俳",
        -10.961454560863368
      ],
      [
        "芽",
        -10.964972479512841
      ],
      [
        "漏",
        -10.966431535031601
      ],
      [
        "桐",
        -10.966553219139657
      ],
      [
        "黙",
        -10.967283634899513
      ],
      [
        "礁",
        -10.967649042942103
      ],
      [
        "硫",
        -10.968136461460869
      ],
      [
        "瓦",
        -10.96874606889182
      ],
      [
        "敢",
        -10.970943737803639
      ],
      [
        "播",
        -10.974494617004677
      ],
      [
        "朽",
        -10.976582044086157
      ],
      [
        "叩",
        -10.979043432317297
      ],
      [
        "霧",
        -10.979536437811344
      ],
      [
        "厩",
        -10.983736826957802
      ],
      [
        "壌",
        -10.985843656337707
      ],
      [
        "乏",
        -10.995692881936469
      ],
      [
        "於",
        -10.998830040986658
      ],
      [
        "琉",
        -10.999458655540087
      ],
      [
        "蛇",
        -11.006779609654556
      ],
      [
        "般",
        -11.007500519508712
      ],
      [
        "鼓",
        -11.009062570881486
      ],
      [
        "稀",
        -11.00918955500847
      ],
      [
        "尺",
        -11.010460283940702
      ],
      [
        "惨",
        -11.010714623612357
      ],
      [
        "雀",
        -11.01338910304296
      ],
      [
        "穏",
        -11.015048324863608
      ],
      [
        "讃",
        -11.015559409011264
      ],
      [
        "嫁",
        -11.016070754499498
      ],
      [
        "媛",
        -11.016710304277398
      ],
      [
        "搭",
        -11.022310673508052
      ],
      [
        "涼",
        -11.023128399594045
      ],
      [
        "糧",
        -11.02570721605412
      ],
      [
        "巧",
        -11.029199200973773
      ],
      [
        "к",
        -11.030884886017878
      ],
      [
        "潤",
        -11.031014671871217
      ],
      [
        "帽",
        -11.037786853763984
      ],
      [
        "澄",
        -11.040010821187145
      ],
      [
        "偉",
        -11.041190221138706
      ],
      [
        "翔",
        -11.04197726125166
      ],
      [
        "奮",
        -11.043290372855958
      ],
      [
        "責",
        -11.043693187591611
      ],
      [
        "佳",
        -11.05027879791194
      ],
      [
        "幽",
        -11.05985142966156
      ],
      [
        "嗣",
        -11.062928766846001
      ],
      [
        "是",
        -11.063330857723358
      ],
      [
        "猿",
        -11.065478077225926
      ],
      [
        "琴",
        -11.066015603274476
      ],
      [
        "※",
        -11.067899223068387
      ],
      [
        "粛",
        -11.073300627050525
      ],
      [
        "諾",
        -11.073977858553091
      ],
      [
        "焦",
        -11.074791142229339
      ],
      [
        "謙",
        -11.075333699040733
      ],
      [
        "}",
        -11.075605087873468
      ],
      [
        "亮",
        -11.075876550379824
      ],
      [
        "л",
        -11.078050907419867
      ],
      [
        "{",
        -11.078186961840773
      ],
      [
        "累",
        -11.078186961841636
      ],
      [
        "膝",
        -11.079003677328497
      ],
      [
        "鉛",
        -11.079412285342269
      ],
      [
        "仰",
        -11.0796420115018
      ],
      [
        "篠",
        -11.08063911210275
      ],
      [
        "拍",
        -11.081730889759827
      ],
      [
        "涙",
        -11.085424464404628
      ],
      [
        "胡",
        -11.085424464404628
      ],
      [
        "磯",
        -11.08638428896605
      ],
      [
        "鋳",
        -11.086933174056156
      ],
      [
        "穀",
        -11.088444163352248
      ],
      [
        "庵",
        -11.088994180553282
      ],
      [
        "企",
        -11.089786567914633
      ],
      [
        "淵",
        -11.093957996321821
      ],
      [
        "跳",
        -11.094787699749139
      ],
      [
        "奴",
        -11.097132944612255
      ],
      [
        "帥",
        -11.105077716134264
      ],
      [
        "泣",
        -11.105636961167157
      ],
      [
        "渉",
        -11.109274795102674
      ],
      [
        "擢",
        -11.114063385564894
      ],
      [
        "据",
        -11.115051109645247
      ],
      [
        "т",
        -11.115051109645249
      ],
      [
        "甥",
        -11.117029489429466
      ],
      [
        "|",
        -11.117737003252964
      ],
      [
        "吐",
        -11.118161751950353
      ],
      [
        "賠",
        -11.120572074962102
      ],
      [
        "醸",
        -11.120856024704429
      ],
      [
        "宛",
        -11.12398480489499
      ],
      [
        "闇",
        -11.126694833649257
      ],
      [
        "蹴",
        -11.127838099223785
      ],
      [
        "遡",
        -11.13170629888288
      ],
      [
        "淳",
        -11.132855311574643
      ],
      [
        "雰",
        -11.133717938324947
      ],
      [
        "鐘",
        -11.133861781823219
      ],
      [
        "賭",
        -11.13429343650544
      ],
      [
        "鳳",
        -11.135445427414918
      ],
      [
        "擬",
        -11.137031584918477
      ],
      [
        "諭",
        -11.139921969178765
      ],
      [
        "ü",
        -11.142675594102284
      ],
      [
        "疲",
        -11.14660172971885
      ],
      [
        "隅",
        -11.147476301597257
      ],
      [
        "囚",
        -11.148059774736547
      ],
      [
        "肖",
        -11.1492277433321
      ],
      [
        "俺",
        -11.150835930810336
      ],
      [
        "碁",
        -11.150982257997928
      ],
      [
        "膚",
        -11.152446708721996
      ],
      [
        "呪",
        -11.153326409678845
      ],
      [
        "菩",
        -11.156411471617739
      ],
      [
        "砕",
        -11.161870322578679
      ],
      [
        "堺",
        -11.163795393508781
      ],
      [
        "窮",
        -11.163795393508781
      ],
      [
        "殆",
        -11.167954330056508
      ],
      [
        "壮",
        -11.168103183882053
      ],
      [
        "蒙",
        -11.169145781531915
      ],
      [
        "刃",
        -11.169443866338693
      ],
      [
        "酔",
        -11.171084922947413
      ],
      [
        "遮",
        -11.174674785445278
      ],
      [
        "漠",
        -11.174974523176449
      ],
      [
        "貢",
        -11.177771608079446
      ],
      [
        "廊",
        -11.180083858799113
      ],
      [
        "猪",
        -11.183101590242323
      ],
      [
        "忌",
        -11.184462546143129
      ],
      [
        "循",
        -11.188404632962975
      ],
      [
        "胆",
        -11.191904864805597
      ],
      [
        "娠",
        -11.192057327071185
      ],
      [
        "択",
        -11.19221028147144
      ],
      [
        "宜",
        -11.19266740868734
      ],
      [
        "稽",
        -11.19343053448602
      ],
      [
        "伎",
        -11.194194243090463
      ],
      [
        "楼",
        -11.195417391317939
      ],
      [
        "汽",
        -11.19694843348802
      ],
      [
        "貼",
        -11.197714834505025
      ],
      [
        "斑",
        -11.20124786428677
      ],
      [
        "棚",
        -11.204793420637753
      ],
      [
        "篤",
        -11.20773187000883
      ],
      [
        "零",
        -11.208971699688611
      ],
      [
        "餌",
        -11.210213068454422
      ],
      [
        "拾",
        -11.212856104813588
      ],
      [
        "叫",
        -11.21332324901297
      ],
      [
        "漫",
        -11.215497410020113
      ],
      [
        "臭",
        -11.216911956243075
      ],
      [
        "敦",
        -11.21785026266703
      ],
      [
        "隙",
        -11.219729520909466
      ],
      [
        "辻",
        -11.224285695317517
      ],
      [
        "窟",
        -11.225073345010046
      ],
      [
        "苗",
        -11.225388578678958
      ],
      [
        "岬",
        -11.225388578678958
      ],
      [
        "髄",
        -11.226177097879196
      ],
      [
        "刈",
        -11.229812316036378
      ],
      [
        "牝",
        -11.2302874506658
      ],
      [
        "諏",
        -11.23219024993568
      ],
      [
        "俵",
        -11.23632544468635
      ],
      [
        "鍋",
        -11.238239778839532
      ],
      [
        "捧",
        -11.242079476373386
      ],
      [
        "廠",
        -11.242400117658011
      ],
      [
        "嘆",
        -11.242881272437716
      ],
      [
        "把",
        -11.243683711894873
      ],
      [
        "駄",
        -11.24593397403061
      ],
      [
        "萩",
        -11.24609490096978
      ],
      [
        "簿",
        -11.248511917932401
      ],
      [
        "墨",
        -11.249641861552993
      ],
      [
        "烏",
        -11.252553307194
      ],
      [
        "ā",
        -11.256123290693743
      ],
      [
        "勾",
        -11.257750233211228
      ],
      [
        "\\",
        -11.258401752086076
      ],
      [
        "鞭",
        -11.263465467566531
      ],
      [
        "縛",
        -11.265432520077383
      ],
      [
        "嶺",
        -11.268225817976708
      ],
      [
        "傑",
        -11.269213553670882
      ],
      [
        "顎",
        -11.269378271180354
      ],
      [
        "坪",
        -11.272843621174987
      ],
      [
        "逝",
        -11.272843621174989
      ],
      [
        "缶",
        -11.275989319126039
      ],
      [
        "鍛",
        -11.275989319126039
      ],
      [
        "吊",
        -11.276321021591212
      ],
      [
        "己",
        -11.278870020095008
      ],
      [
        "錯",
        -11.279144943727118
      ],
      [
        "胎",
        -11.28014352914523
      ],
      [
        "鯨",
        -11.28014352914523
      ],
      [
        "靴",
        -11.28164327946453
      ],
      [
        "胤",
        -11.283312310975534
      ],
      [
        "帆",
        -11.285151468821212
      ],
      [
        "玩",
        -11.288168315148187
      ],
      [
        "綴",
        -11.289175956510784
      ],
      [
        "倣",
        -11.28968015820095
      ],
      [
        "戴",
        -11.29052105969487
      ],
      [
        "隈",
        -11.2906893248808
      ],
      [
        "妥",
        -11.291194290384365
      ],
      [
        "頑",
        -11.292036466615405
      ],
      [
        "遼",
        -11.29237353580125
      ],
      [
        "輌",
        -11.292542113009613
      ],
      [
        "煮",
        -11.293048015211447
      ],
      [
        "汁",
        -11.293216706169611
      ],
      [
        "誉",
        -11.293249967790747
      ],
      [
        "鶏",
        -11.293385425589216
      ],
      [
        "凝",
        -11.294229449945218
      ],
      [
        "培",
        -11.29490199112382
      ],
      [
        "ヵ",
        -11.295750491302961
      ],
      [
        "堆",
        -11.296088814911908
      ],
      [
        "憧",
        -11.297612689229576
      ],
      [
        "瓶",
        -11.298460290566645
      ],
      [
        "槍",
        -11.30083740348944
      ],
      [
        "棲",
        -11.301007413690053
      ],
      [
        "骸",
        -11.301517617781524
      ],
      [
        "矛",
        -11.301687743674686
      ],
      [
        "倶",
        -11.301857898515589
      ],
      [
        "崖",
        -11.302198295080048
      ],
      [
        "裸",
        -11.30219829508005
      ],
      [
        "貌",
        -11.307147110628794
      ],
      [
        "−",
        -11.311089522307517
      ],
      [
        "舗",
        -11.313551692868845
      ],
      [
        "悼",
        -11.32040716367555
      ],
      [
        "恭",
        -11.323010879772845
      ],
      [
        "暇",
        -11.3231847021264
      ],
      [
        "痕",
        -11.325447146524658
      ],
      [
        "徐",
        -11.325772612561217
      ],
      [
        "綾",
        -11.329112711799633
      ],
      [
        "錬",
        -11.330162488815766
      ],
      [
        "ヲ",
        -11.330337558843679
      ],
      [
        "曾",
        -11.33349407175903
      ],
      [
        "宴",
        -11.334372652027659
      ],
      [
        "酬",
        -11.338600615682951
      ],
      [
        "豚",
        -11.341783360824476
      ],
      [
        "潰",
        -11.343378540173093
      ],
      [
        "樽",
        -11.345687189745078
      ],
      [
        "靖",
        -11.345864999133413
      ],
      [
        "鞍",
        -11.348892606068551
      ],
      [
        "曳",
        -11.354796022124065
      ],
      [
        "鴨",
        -11.35659183835116
      ],
      [
        "儒",
        -11.357490957272825
      ],
      [
        "挫",
        -11.358210834922776
      ],
      [
        "惜",
        -11.358931231169903
      ],
      [
        "燕",
        -11.359652146761938
      ],
      [
        "朴",
        -11.35965214676194
      ],
      [
        "廻",
        -11.360734495561342
      ],
      [
        "填",
        -11.361998718229442
      ],
      [
        "漂",
        -11.362541017590496
      ],
      [
        "蒋",
        -11.364169682441176
      ],
      [
        "揆",
        -11.364894385795488
      ],
      [
        "戚",
        -11.365619614725658
      ],
      [
        "轄",
        -11.367439591621796
      ],
      [
        "哉",
        -11.369982068237597
      ],
      [
        "坑",
        -11.371805389003882
      ],
      [
        "┃",
        -11.37527888425983
      ],
      [
        "股",
        -11.375462034443022
      ],
      [
        "ぴ",
        -11.37949984848887
      ],
      [
        "畳",
        -11.38392341112233
      ],
      [
        "汎",
        -11.38484745480031
      ],
      [
        "唄",
        -11.387439328871857
      ],
      [
        "遍",
        -11.392084450551618
      ],
      [
        "藍",
        -11.393761990548736
      ],
      [
        "究",
        -11.394098192590414
      ],
      [
        "狼",
        -11.39712553664194
      ],
      [
        "癒",
        -11.401815976747093
      ],
      [
        "抹",
        -11.403509935362857
      ],
      [
        "聘",
        -11.403698330238516
      ],
      [
        "鷲",
        -11.405018089098863
      ],
      [
        "塊",
        -11.40955624568735
      ],
      [
        "赦",
        -11.409935356675495
      ],
      [
        "凱",
        -11.410694010099842
      ],
      [
        "慌",
        -11.412593165541034
      ],
      [
        "潔",
        -11.41259316554104
      ],
      [
        "粗",
        -11.418886092467519
      ],
      [
        "橘",
        -11.419268757734581
      ],
      [
        "椅",
        -11.42022606203605
      ],
      [
        "袖",
        -11.420417632917276
      ],
      [
        "楕",
        -11.421184283647259
      ],
      [
        "枯",
        -11.42214342432786
      ],
      [
        "胃",
        -11.422335362907518
      ],
      [
        "飢",
        -11.422719350623447
      ],
      [
        "臼",
        -11.426374606701966
      ],
      [
        "湘",
        -11.42656735920775
      ],
      [
        "辱",
        -11.428110718243765
      ],
      [
        "腺",
        -11.434891061904846
      ],
      [
        "甚",
        -11.436058036651904
      ],
      [
        "翻",
        -11.438323198258704
      ],
      [
        "鳩",
        -11.441913425666964
      ],
      [
        "淀",
        -11.441913425666964
      ],
      [
        "畠",
        -11.44230500667904
      ],
      [
        "姻",
        -11.444069021242935
      ],
      [
        "詠",
        -11.444657718275316
      ],
      [
        "β",
        -11.448000230224348
      ],
      [
        "廉",
        -11.448985451975732
      ],
      [
        "盟",
        -11.451029047592295
      ],
      [
        "跨",
        -11.452144700323212
      ],
      [
        "湧",
        -11.452342485133336
      ],
      [
        "á",
        -11.455512373859492
      ],
      [
        "粧",
        -11.456306418563617
      ],
      [
        "芦",
        -11.457896401999774
      ],
      [
        "尖",
        -11.458095327800452
      ],
      [
        "肪",
        -11.461682775582231
      ],
      [
        "詣",
        -11.46228193677252
      ],
      [
        "吏",
        -11.462481736972322
      ],
      [
        "綻",
        -11.464882458333417
      ],
      [
        "舌",
        -11.46488245833342
      ],
      [
        "挺",
        -11.466285545349841
      ],
      [
        "殴",
        -11.468092411926502
      ],
      [
        "凡",
        -11.46990254918055
      ],
      [
        "婿",
        -11.470708107574017
      ],
      [
        "褒",
        -11.472119398126063
      ],
      [
        "楠",
        -11.472522990098692
      ],
      [
        "μ",
        -11.47312868363423
      ],
      [
        "瘍",
        -11.475352703952996
      ],
      [
        "鰭",
        -11.479612345267588
      ],
      [
        "鄭",
        -11.482258387917723
      ],
      [
        "藻",
        -11.483073965490943
      ],
      [
        "脊",
        -11.48470711885429
      ],
      [
        "馴",
        -11.48716186079638
      ],
      [
        "凶",
        -11.490444251669157
      ],
      [
        "窒",
        -11.49456244958849
      ],
      [
        "倭",
        -11.495801223356624
      ],
      [
        "悔",
        -11.496214489194285
      ],
      [
        "匿",
        -11.499526778723567
      ],
      [
        "汗",
        -11.502018215693182
      ],
      [
        "奔",
        -11.50243405934047
      ],
      [
        "睦",
        -11.504932759225973
      ],
      [
        "曰",
        -11.508064939683008
      ],
      [
        "學",
        -11.509948967865814
      ],
      [
        "笛",
        -11.511836552311962
      ],
      [
        "抵",
        -11.512378556174363
      ],
      [
        "賄",
        -11.515411740123765
      ],
      [
        "ا",
        -11.519845868994047
      ],
      [
        "丞",
        -11.520480924051109
      ],
      [
        "舵",
        -11.522176378514693
      ],
      [
        "陀",
        -11.522176378514695
      ],
      [
        "喧",
        -11.52302518492852
      ],
      [
        "欺",
        -11.524512331999643
      ],
      [
        "騰",
        -11.533696505875522
      ],
      [
        "袁",
        -11.535414534853723
      ],
      [
        "遽",
        -11.537566230134967
      ],
      [
        "笹",
        -11.537781654521009
      ],
      [
        "頓",
        -11.540802478901623
      ],
      [
        "扶",
        -11.543832456318837
      ],
      [
        "憂",
        -11.54383245631884
      ],
      [
        "俸",
        -11.54578515816837
      ],
      [
        "牙",
        -11.546219610220847
      ],
      [
        "圭",
        -11.546654251103954
      ],
      [
        "蕭",
        -11.5470890809819
      ],
      [
        "條",
        -11.547524100019103
      ],
      [
        "紡",
        -11.54948403095237
      ],
      [
        "ä",
        -11.551447810759617
      ],
      [
        "哀",
        -11.558901533718727
      ],
      [
        "藝",
        -11.559782106144112
      ],
      [
        "喚",
        -11.56353321379298
      ],
      [
        "薫",
        -11.566411232150324
      ],
      [
        "懇",
        -11.567076568166819
      ],
      [
        "樺",
        -11.567964372016853
      ],
      [
        "昨",
        -11.569964817218963
      ],
      [
        "腎",
        -11.570632522560395
      ],
      [
        "嚢",
        -11.571300674030152
      ],
      [
        "槽",
        -11.571523490429438
      ],
      [
        "讐",
        -11.571746356486937
      ],
      [
        "湊",
        -11.573307811180944
      ],
      [
        "姦",
        -11.574871707829198
      ],
      [
        "嘱",
        -11.578006857624034
      ],
      [
        "惣",
        -11.580701974347948
      ],
      [
        "隷",
        -11.582712932113024
      ],
      [
        "梶",
        -11.582728089395411
      ],
      [
        "侶",
        -11.583404374359713
      ],
      [
        "莫",
        -11.586114097130764
      ],
      [
        "欄",
        -11.586792676660808
      ],
      [
        "肌",
        -11.587698166249087
      ],
      [
        "惹",
        -11.58792466681534
      ],
      [
        "裔",
        -11.590646682774944
      ],
      [
        "桓",
        -11.592010474320377
      ],
      [
        "灌",
        -11.592237953847219
      ],
      [
        "槻",
        -11.598399543373562
      ],
      [
        "汲",
        -11.599086513857847
      ],
      [
        "叶",
        -11.59954475650334
      ],
      [
        "晃",
        -11.602758348144999
      ],
      [
        "穫",
        -11.602988286061763
      ],
      [
        "拶",
        -11.603218276862128
      ],
      [
        "挨",
        -11.60321827686213
      ],
      [
        "諦",
        -11.603448320570433
      ],
      [
        "д",
        -11.605290577847866
      ],
      [
        "ö",
        -11.605521098825276
      ],
      [
        "擦",
        -11.606674501485514
      ],
      [
        "爪",
        -11.609679589262955
      ],
      [
        "惧",
        -11.60991112434052
      ],
      [
        "抄",
        -11.611069604539043
      ],
      [
        "鱗",
        -11.615018506284644
      ],
      [
        "彗",
        -11.617582012687384
      ],
      [
        "溜",
        -11.617815384916087
      ],
      [
        "辿",
        -11.618282292824865
      ],
      [
        "盲",
        -11.622963401409999
      ],
      [
        "漬",
        -11.625782620931387
      ],
      [
        "租",
        -11.625782620931389
      ],
      [
        "泌",
        -11.629317859100833
      ],
      [
        "遥",
        -11.62955398660969
      ],
      [
        "其",
        -11.630026408961843
      ],
      [
        "杜",
        -11.630499054602389
      ],
      [
        "焉",
        -11.630735461221773
      ],
      [
        "詐",
        -11.631918333367427
      ],
      [
        "縫",
        -11.632865639532126
      ],
      [
        "麺",
        -11.63310260635677
      ],
      [
        "暁",
        -11.639045100640459
      ],
      [
        "耗",
        -11.640237848867812
      ],
      [
        "皿",
        -11.640954181273267
      ],
      [
        "廟",
        -11.641671027178688
      ],
      [
        "掴",
        -11.641910090052223
      ],
      [
        "棺",
        -11.646703388601557
      ],
      [
        "窯",
        -11.653211003726794
      ],
      [
        "窪",
        -11.654178706712795
      ],
      [
        "絹",
        -11.655147347055022
      ],
      [
        "黎",
        -11.6587881277578
      ],
      [
        "飽",
        -11.659517877239272
      ],
      [
        "昧",
        -11.66146648337539
      ],
      [
        "憎",
        -11.664396530628608
      ],
      [
        "凌",
        -11.66561992201561
      ],
      [
        "泡",
        -11.667089970049545
      ],
      [
        "@",
        -11.667335188293782
      ],
      [
        "毅",
        -11.667825805251978
      ],
      [
        "恥",
        -11.667825805251981
      ],
      [
        "拐",
        -11.669299102011992
      ],
      [
        "祇",
        -11.669299102011992
      ],
      [
        "庇",
        -11.671020696132418
      ],
      [
        "迅",
        -11.671513125045456
      ],
      [
        "睡",
        -11.672991868375826
      ],
      [
        "韻",
        -11.673732060855905
      ],
      [
        "綬",
        -11.675955931294105
      ],
      [
        "鉢",
        -11.678184758356947
      ],
      [
        "獅",
        -11.678432712733342
      ],
      [
        "巴",
        -11.679921731489465
      ],
      [
        "霞",
        -11.68890270736242
      ],
      [
        "萌",
        -11.689654775581445
      ],
      [
        "塵",
        -11.690407409832796
      ],
      [
        "腔",
        -11.692920289644208
      ],
      [
        "堰",
        -11.693171925275813
      ],
      [
        "牟",
        -11.693675386580201
      ],
      [
        "聡",
        -11.697459447584073
      ],
      [
        "輿",
        -11.697459447584073
      ],
      [
        "卑",
        -11.697712228170529
      ],
      [
        "娯",
        -11.698470953544302
      ],
      [
        "拉",
        -11.699483483684888
      ],
      [
        "賑",
        -11.699990133471356
      ],
      [
        "央",
        -11.70075302024127
      ],
      [
        "俣",
        -11.701511624817957
      ],
      [
        "云",
        -11.70507079977756
      ],
      [
        "爾",
        -11.706090037979784
      ],
      [
        "耶",
        -11.706855148954052
      ],
      [
        "■",
        -11.707110315987332
      ],
      [
        "й",
        -11.707365548349884
      ],
      [
        "邑",
        -11.70736554834989
      ],
      [
        "撰",
        -11.708387129329616
      ],
      [
        "眺",
        -11.709921460270513
      ],
      [
        "恨",
        -11.711201870169564
      ],
      [
        "愚",
        -11.711970903784383
      ],
      [
        "枕",
        -11.713767618836922
      ],
      [
        "【",
        -11.71608243467261
      ],
      [
        "】",
        -11.717370762594257
      ],
      [
        "畔",
        -11.719693943801769
      ],
      [
        "斯",
        -11.722281602107932
      ],
      [
        "苑",
        -11.724875973765188
      ],
      [
        "榴",
        -11.729823900498452
      ],
      [
        "猶",
        -11.731391503684494
      ],
      [
        "漆",
        -11.736897547977513
      ],
      [
        "’",
        -11.740321306898723
      ],
      [
        "嘩",
        -11.74243407672029
      ],
      [
        "悠",
        -11.742962967381393
      ],
      [
        "癖",
        -11.749597811214706
      ],
      [
        "魯",
        -11.760305984679297
      ],
      [
        "灘",
        -11.767057293025685
      ],
      [
        "傘",
        -11.768779391282031
      ],
      [
        "哺",
        -11.77221894531238
      ],
      [
        "м",
        -11.77467326886351
      ],
      [
        "ヂ",
        -11.778229071274978
      ],
      [
        "摘",
        -11.778908634388618
      ],
      [
        "熙",
        -11.779051439737229
      ],
      [
        "撫",
        -11.780423558494938
      ],
      [
        "誕",
        -11.781115249809355
      ],
      [
        "伽",
        -11.781247734360582
      ],
      [
        "迦",
        -11.782072590052413
      ],
      [
        "忙",
        -11.782622872082364
      ],
      [
        "ο",
        -11.783448863313529
      ],
      [
        "喰",
        -11.785378833572276
      ],
      [
        "叡",
        -11.785930938482723
      ],
      [
        "冶",
        -11.786207105287474
      ],
      [
        "寅",
        -11.788696044609585
      ],
      [
        "傭",
        -11.788972976207482
      ],
      [
        "蝶",
        -11.789527069582846
      ],
      [
        "$",
        -11.790081470147895
      ],
      [
        "沸",
        -11.790358785733032
      ],
      [
        "肯",
        -11.791746518392019
      ],
      [
        "鐵",
        -11.793692585159905
      ],
      [
        "閑",
        -11.79480632604467
      ],
      [
        "嘘",
        -11.797037535992239
      ],
      [
        "殉",
        -11.80348013526529
      ],
      [
        "坦",
        -11.803480135265291
      ],
      [
        "董",
        -11.804604836627671
      ],
      [
        "虹",
        -11.808551282879248
      ],
      [
        "謳",
        -11.808551282879248
      ],
      [
        "溢",
        -11.808551282879248
      ],
      [
        "剖",
        -11.813648278164182
      ],
      [
        "肘",
        -11.813648278164182
      ],
      [
        "栖",
        -11.815353066177476
      ],
      [
        "貰",
        -11.817060765456716
      ],
      [
        "寵",
        -11.818486079257346
      ],
      [
        "亘",
        -11.819342243687398
      ],
      [
        "于",
        -11.819342243687398
      ],
      [
        "或",
        -11.819913427477436
      ],
      [
        "峯",
        -11.820199141763139
      ],
      [
        "渕",
        -11.824494680984802
      ],
      [
        "憤",
        -11.825356007474857
      ],
      [
        "儲",
        -11.82650559805195
      ],
      [
        "牌",
        -11.828520567055996
      ],
      [
        "萬",
        -11.82909701900628
      ],
      [
        "卸",
        -11.830828371324035
      ],
      [
        "諱",
        -11.832562726422235
      ],
      [
        "у",
        -11.833431033272463
      ],
      [
        "巳",
        -11.835169912121865
      ],
      [
        "〇",
        -11.836911819938662
      ],
      [
        "汰",
        -11.837202433132507
      ],
      [
        "諮",
        -11.840988110311818
      ],
      [
        "廣",
        -11.842740191343278
      ],
      [
        "樋",
        -11.845374082223826
      ],
      [
        "糾",
        -11.845374082223826
      ],
      [
        "★",
        -11.847721156777183
      ],
      [
        "暑",
        -11.84948508490081
      ],
      [
        "憩",
        -11.850957405533046
      ],
      [
        "脆",
        -11.85154694128646
      ],
      [
        "渦",
        -11.85746149345485
      ],
      [
        "餅",
        -11.860729470195425
      ],
      [
        "牢",
        -11.86072947019543
      ],
      [
        "峙",
        -11.862516514589299
      ],
      [
        "歪",
        -11.864306758228853
      ],
      [
        "蛍",
        -11.866100212589508
      ],
      [
        "楚",
        -11.867896889208518
      ],
      [
        "詔",
        -11.86789688920852
      ],
      [
        "嶽",
        -11.868796439487326
      ],
      [
        "醍",
        -11.869696799685446
      ],
      [
        "醐",
        -11.869997099985747
      ],
      [
        "ó",
        -11.872402754413
      ],
      [
        "盧",
        -11.875720007128256
      ],
      [
        "纏",
        -11.877534066568831
      ],
      [
        "諜",
        -11.878442331837773
      ],
      [
        "濫",
        -11.879048300644289
      ],
      [
        "弊",
        -11.880564831102262
      ],
      [
        "帖",
        -11.883909315799345
      ],
      [
        "璧",
        -11.88482339263837
      ],
      [
        "葺",
        -11.88695949352558
      ],
      [
        "柵",
        -11.889100167109234
      ],
      [
        "喉",
        -11.889100167109238
      ],
      [
        "婆",
        -11.890019003307586
      ],
      [
        "頁",
        -11.893702814044726
      ],
      [
        "紳",
        -11.896166248681354
      ],
      [
        "翁",
        -11.896166248681356
      ],
      [
        "ν",
        -11.897091603459346
      ],
      [
        "圓",
        -11.89801781531196
      ],
      [
        "茅",
        -11.898635766817534
      ],
      [
        "鴻",
        -11.89956341066145
      ],
      [
        "蜜",
        -11.900491915827525
      ],
      [
        "悦",
        -11.900491915827525
      ],
      [
        "祷",
        -11.902041342837222
      ],
      [
        "蝦",
        -11.902972152701489
      ],
      [
        "苻",
        -11.904836375690271
      ],
      [
        "冥",
        -11.906081124557296
      ],
      [
        "餓",
        -11.906392554018522
      ],
      [
        "醒",
        -11.917669102549914
      ],
      [
        "憑",
        -11.917669102549917
      ],
      [
        "隼",
        -11.919245395423145
      ],
      [
        "紐",
        -11.923355423305448
      ],
      [
        "朋",
        -11.924623453263436
      ],
      [
        "濱",
        -11.924940712146688
      ],
      [
        "噛",
        -11.925575532032537
      ],
      [
        "霜",
        -11.925893093163056
      ],
      [
        "迂",
        -11.9281188492301
      ],
      [
        "隋",
        -11.928437219175974
      ],
      [
        "尹",
        -11.931945994675905
      ],
      [
        "醤",
        -11.933224971657895
      ],
      [
        "蒼",
        -11.933544971657897
      ],
      [
        "曖",
        -11.937071746684316
      ],
      [
        "壕",
        -11.939322551473682
      ],
      [
        "í",
        -11.939322551473682
      ],
      [
        "杖",
        -11.940933376550323
      ],
      [
        "壺",
        -11.94125585317077
      ],
      [
        "蛮",
        -11.942223907449003
      ],
      [
        "惟",
        -11.942546800571376
      ],
      [
        "逢",
        -11.94254680057138
      ],
      [
        "紹",
        -11.94308399889199
      ],
      [
        "怠",
        -11.946429672265928
      ],
      [
        "翅",
        -11.949676955493558
      ],
      [
        "瞭",
        -11.951304560005159
      ],
      [
        "箕",
        -11.955221653276602
      ],
      [
        "梱",
        -11.955548771366232
      ],
      [
        "購",
        -11.956169875511058
      ],
      [
        "酢",
        -11.962113705438435
      ],
      [
        "濁",
        -11.963431879945931
      ],
      [
        "稜",
        -11.968722022835127
      ],
      [
        "錠",
        -11.969385262780403
      ],
      [
        "仇",
        -11.969717047783725
      ],
      [
        "扮",
        -11.972042630205808
      ],
      [
        "錐",
        -11.972375298203147
      ],
      [
        "〔",
        -11.97404030023741
      ],
      [
        "棘",
        -11.974040300237412
      ],
      [
        "頸",
        -11.975708079127536
      ],
      [
        "〕",
        -11.976041968943896
      ],
      [
        "я",
        -11.976375970279902
      ],
      [
        "晒",
        -11.977378644151363
      ],
      [
        "欽",
        -11.977713092311898
      ],
      [
        "仔",
        -11.978382324386846
      ],
      [
        "瑠",
        -11.981063740414475
      ],
      [
        "拷",
        -11.985773589278306
      ],
      [
        "蔑",
        -11.990166972443756
      ],
      [
        "弧",
        -11.992540659530786
      ],
      [
        "幌",
        -11.99895834335996
      ],
      [
        "襄",
        -11.999695715540229
      ],
      [
        "舘",
        -12.002777909730973
      ],
      [
        "徽",
        -12.003120962904216
      ],
      [
        "鬱",
        -12.003120962904216
      ],
      [
        "蔽",
        -12.006557982923397
      ],
      [
        "荻",
        -12.00862587955573
      ],
      [
        "膳",
        -12.010352399304477
      ],
      [
        "桶",
        -12.011735764546739
      ],
      [
        "捻",
        -12.012081905079796
      ],
      [
        "漑",
        -12.017636510522419
      ],
      [
        "痺",
        -12.018333010630599
      ],
      [
        "杵",
        -12.018681442686345
      ],
      [
        "此",
        -12.019727467875743
      ],
      [
        "ч",
        -12.020774588379622
      ],
      [
        "凄",
        -12.021473278357272
      ],
      [
        "狗",
        -12.025675700888428
      ],
      [
        "眞",
        -12.030248343349708
      ],
      [
        "è",
        -12.03201263454417
      ],
      [
        "琵",
        -12.034133901006037
      ],
      [
        "謁",
        -12.034841990955648
      ],
      [
        "崔",
        -12.035196224041016
      ],
      [
        "戊",
        -12.035196224041018
      ],
      [
        "伺",
        -12.03555058265193
      ],
      [
        "寂",
        -12.035550582651933
      ],
      [
        "琶",
        -12.035905066877383
      ],
      [
        "乞",
        -12.037324261707756
      ],
      [
        "唇",
        -12.037324261707758
      ],
      [
        "榎",
        -12.038389981157987
      ],
      [
        "ゥ",
        -12.038830603652592
      ],
      [
        "鵬",
        -12.041593971049089
      ],
      [
[...]
