{
  "version": "1.0",
  "truncation": null,
  "padding": null,
  "added_tokens": [
    {
      "id": 0,
      "content": "<pad>",
      "single_word": false,
      "lstrip": false,
      "rstrip": false,
      "normalized": false,
      "special": true
    },
    {
      "id": 1,
      "content": "<s>",
      "single_word": false,
      "lstrip": false,
      "rstrip": false,
      "normalized": false,
      "special": true
    },
    {
      "id": 2,
      "content": "</s>",
      "single_word": false,
      "lstrip": false,
      "rstrip": false,
      "normalized": false,
      "special": true
    },
    {
      "id": 3,
      "content": "<unk>",
      "single_word": false,
      "lstrip": false,
      "rstrip": false,
      "normalized": false,
      "special": true
    },
    {
      "id": 4,
      "content": "<mask>",
      "single_word": false,
      "lstrip": false,
      "rstrip": false,
      "normalized": false,
      "special": true
    }
  ],
  "normalizer": {
    "type": "NFKC"
  },
  "pre_tokenizer": {
    "type": "UnicodeScripts"
  },
  "post_processor": {
    "type": "TemplateProcessing",
    "single": [
      {
        "SpecialToken": {
          "id": "<s>",
          "type_id": 0
        }
      },
      {
        "Sequence": {
          "id": "A",
          "type_id": 0
        }
      },
      {
        "SpecialToken": {
          "id": "</s>",
          "type_id": 0
        }
      }
    ],
    "pair": [
      {
        "Sequence": {
          "id": "A",
          "type_id": 0
        }
      },
      {
        "Sequence": {
          "id": "B",
          "type_id": 1
        }
      }
    ],
    "special_tokens": {
      "</s>": {
        "id": "</s>",
        "ids": [
          2
        ],
        "tokens": [
          "</s>"
        ]
      },
      "<s>": {
        "id": "<s>",
        "ids": [
          1
        ],
        "tokens": [
          "<s>"
        ]
      }
    }
  },
  "decoder": {
    "type": "Metaspace",
    "replacement": "▁",
    "prepend_scheme": "always",
    "split": true
  },
  "model": {
    "type": "Unigram",
    "unk_id": 3,
    "vocab": [
      [
        "<pad>",
        0.0
      ],
      [
        "<s>",
        0.0
      ],
      [
        "</s>",
        0.0
      ],
      [
        "<unk>",
        0.0
      ],
      [
        "<mask>",
        0.0
      ],
      [
        "、",
        -3.201640248751403
      ],
      [
        "の",
        -3.4517533201213055
      ],
      [
        "。",
        -3.709539604651963
      ],
      [
        "は",
        -4.005685556500405
      ],
      [
        "を",
        -4.065944572849766
      ],
      [
        "が",
        -4.161910813212749
      ],
      [
        "に",
        -4.208608337205572
      ],
      [
        "・",
        -4.705146988700728
      ],
      [
        "と",
        -4.771112352086304
      ],
      [
        "で",
        -4.775167199274335
      ],
      [
        "年",
        -4.881457543575658
      ],
      [
        "(",
        -4.8883044861922595
      ],
      [
        ")",
        -4.899568517836977
      ],
      [
        " ",
        -5.192228054995155
      ],
      [
        "した",
        -5.253497517998502
      ],
      [
        "」",
        -5.448941134905709
      ],
      [
        "し",
        -5.479572362673224
      ],
      [
        "「",
        -5.486791087916753
      ],
      [
        "月",
        -5.596919969068239
      ],
      [
        "する",
        -5.612058623012382
      ],
      [
        "も",
        -5.641951392095281
      ],
      [
        "ス",
        -5.667657649116862
      ],
      [
        "から",
        -5.67134904016735
      ],
      [
        "や",
        -5.7326867784472295
      ],
      [
        "1",
        -5.739246782164905
      ],
      [
        "2",
        -5.801956313620217
      ],
      [
        "である",
        -5.866640157602722
      ],
      [
        "た",
        -5.962977142457412
      ],
      [
        "。\n",
        -5.99330971225794
      ],
      [
        "る",
        -6.031315083600468
      ],
      [
        "として",
        -6.037526636818981
      ],
      [
        "3",
        -6.041361484778706
      ],
      [
        "日",
        -6.051191825950211
      ],
      [
        "な",
        -6.051609767161013
      ],
      [
        "された",
        -6.07852085120501
      ],
      [
        "ト",
        -6.089643773986504
      ],
      [
        "い",
        -6.133467026118465
      ],
      [
        "ア",
        -6.1589808615000745
      ],
      [
        "では",
        -6.165449298915215
      ],
      [
        "大",
        -6.221667250567338
      ],
      [
        "り",
        -6.270302069572061
      ],
      [
        "ク",
        -6.287241230720495
      ],
      [
        "人",
        -6.300264069184269
      ],
      [
        "4",
        -6.315413395008207
      ],
      [
        "この",
        -6.320858425496619
      ],
      [
        "ル",
        -6.36144928988125
      ],
      [
        "ド",
        -6.369531526458777
      ],
      [
        "『",
        -6.389340219152894
      ],
      [
        "5",
        -6.4017088768401855
      ],
      [
        "く",
        -6.403749785200338
      ],
      [
        "』",
        -6.431059645961584
      ],
      [
        "て",
        -6.436130069448515
      ],
      [
        "して",
        -6.440002702019452
      ],
      [
        "6",
        -6.463017595018307
      ],
      [
        "か",
        -6.467709149937326
      ],
      [
        "リ",
        -6.477420343885669
      ],
      [
        "には",
        -6.502500283111589
      ],
      [
        "7",
        -6.5105119347954865
      ],
      [
        "という",
        -6.545160518310263
      ],
      [
        "8",
        -6.548628006892212
      ],
      [
        "ラ",
        -6.549008355584839
      ],
      [
        "している",
        -6.568750014001981
      ],
      [
        "また",
        -6.621534819881042
      ],
      [
        "その",
        -6.621959220800365
      ],
      [
        "9",
        -6.623871779415083
      ],
      [
        "中",
        -6.650235899005567
      ],
      [
        "され",
        -6.668342457913512
      ],
      [
        "者",
        -6.679232126308966
      ],
      [
        "本",
        -6.713169029501552
      ],
      [
        "上",
        -6.713573454356853
      ],
      [
        "カ",
        -6.728728884983399
      ],
      [
        "一",
        -6.733507415092465
      ],
      [
        "イ",
        -6.744763788755501
      ],
      [
        "マ",
        -6.754490469532907
      ],
      [
        "ズ",
        -6.757817908561293
      ],
      [
        "など",
        -6.777103352009778
      ],
      [
        "山",
        -6.7851138176457475
      ],
      [
        "コ",
        -6.792439131521721
      ],
      [
        "ロ",
        -6.8095465750443385
      ],
      [
        "ら",
        -6.810156460304579
      ],
      [
        "ている",
        -6.815668354944355
      ],
      [
        "ム",
        -6.823960355112558
      ],
      [
        "国",
        -6.830926356197878
      ],
      [
        "10",
        -6.831903285554995
      ],
      [
        "A",
        -6.837674126946899
      ],
      [
        "年に",
        -6.846668217773065
      ],
      [
        "フ",
        -6.856530127337084
      ],
      [
        "地",
        -6.859093880028556
      ],
      [
        "タ",
        -6.860405661823998
      ],
      [
        "長",
        -6.8857577241807455
      ],
      [
        "C",
        -6.892850889251154
      ],
      [
        "った",
        -6.896431031015979
      ],
      [
        "戦",
        -6.89731840539584
      ],
      [
        "ン",
        -6.898335856824692
      ],
      [
        "部",
        -6.9043612156059115
      ],
      [
        "第",
        -6.906011311520208
      ],
      [
        "き",
        -6.906528861886562
      ],
      [
        "ナ",
        -6.914540934572562
      ],
      [
        "される",
        -6.92771422596811
      ],
      [
        "S",
        -6.927921539626176
      ],
      [
        "田",
        -6.92892583323405
      ],
      [
        "ブ",
        -6.939315842639495
      ],
      [
        "う",
        -6.949613964461291
      ],
      [
        "日本",
        -6.9509316279009035
      ],
      [
        "同",
        -6.951237253286644
      ],
      [
        "エ",
        -6.951907759696438
      ],
      [
        "下",
        -6.96331354503846
      ],
      [
        "-",
        -6.963540772070779
      ],
      [
        "って",
        -6.986654990315214
      ],
      [
        "シ",
        -6.995336481611583
      ],
      [
        "回",
        -6.999013788302451
      ],
      [
        "出",
        -6.999371481126273
      ],
      [
        "M",
        -7.008306146229202
      ],
      [
        "されている",
        -7.008893542679186
      ],
      [
        "水",
        -7.011344309706963
      ],
      [
        "ッ",
        -7.018793931326639
      ],
      [
        "リー",
        -7.026101957018145
      ],
      [
        "となった",
        -7.041363158616813
      ],
      [
        "体",
        -7.044272812846966
      ],
      [
        "前",
        -7.04772331785113
      ],
      [
        "19",
        -7.05626529989952
      ],
      [
        "高",
        -7.059359349990821
      ],
      [
        "数",
        -7.062734382291721
      ],
      [
        "名",
        -7.067938166380145
      ],
      [
        "後",
        -7.068403894549389
      ],
      [
        "T",
        -7.071353623706573
      ],
      [
        "によって",
        -7.073560384206868
      ],
      [
        "学",
        -7.073895863646403
      ],
      [
        "ミ",
        -7.07430727118469
      ],
      [
        "レ",
        -7.074946620096254
      ],
      [
        "オ",
        -7.081855228994966
      ],
      [
        "川",
        -7.084296072585781
      ],
      [
        "家",
        -7.086116941399201
      ],
      [
        "バ",
        -7.087050754083089
      ],
      [
        "市",
        -7.092085886262737
      ],
      [
        "生",
        -7.092837337745269
      ],
      [
        "D",
        -7.1016447727051855
      ],
      [
        "み",
        -7.102549737978563
      ],
      [
        "手",
        -7.103246540463452
      ],
      [
        "ウ",
        -7.119257388247657
      ],
      [
        "法",
        -7.132765373207
      ],
      [
        "B",
        -7.136906819481679
      ],
      [
        "日に",
        -7.1397186747442944
      ],
      [
        "子",
        -7.140420360155799
      ],
      [
        "ジ",
        -7.142851557206512
      ],
      [
        "であった",
        -7.145400670648362
      ],
      [
        "ー",
        -7.1466418379431165
      ],
      [
        "さ",
        -7.152081054619648
      ],
      [
        "線",
        -7.159646670842468
      ],
      [
        "行",
        -7.166552573148211
      ],
      [
        "12",
        -7.167249603683592
      ],
      [
        "グ",
        -7.172865070447386
      ],
      [
        "P",
        -7.175779199803298
      ],
      [
        "化",
        -7.1758798414931615
      ],
      [
        "つ",
        -7.176292096661825
      ],
      [
        "E",
        -7.178749416545813
      ],
      [
        "ニ",
        -7.1795766703245345
      ],
      [
        "m",
        -7.182216788013397
      ],
      [
        "分",
        -7.182497094637727
      ],
      [
        "による",
        -7.182531595576737
      ],
      [
        "ま",
        -7.184110732154394
      ],
      [
        ".",
        -7.184364977464593
      ],
      [
        "新",
        -7.18661467022228
      ],
      [
        "東",
        -7.192512928747975
      ],
      [
        "ため",
        -7.19354439249441
      ],
      [
        "サ",
        -7.195644657301774
      ],
      [
        "性",
        -7.20271558085693
      ],
      [
        "用",
        -7.208476512028101
      ],
      [
        "的な",
        -7.216456471197578
      ],
      [
        "キ",
        -7.221495559487341
      ],
      [
        "会",
        -7.221889205614099
      ],
      [
        "軍",
        -7.229769857774325
      ],
      [
        "的",
        -7.2354116127702195
      ],
      [
        "していた",
        -7.236688293455741
      ],
      [
        "内",
        -7.237994829624414
      ],
      [
        "がある",
        -7.243637105488784
      ],
      [
        "ない",
        -7.248247386598516
      ],
      [
        "s",
        -7.253361096751693
      ],
      [
        "位",
        -7.266180259777297
      ],
      [
        "見",
        -7.270740103222424
      ],
      [
        "事",
        -7.271290131285896
      ],
      [
        "e",
        -7.272823549011969
      ],
      [
        "す",
        -7.281384570034328
      ],
      [
        "小",
        -7.2842444784264675
      ],
      [
        "11",
        -7.287014267388015
      ],
      [
        "であり",
        -7.290314664025056
      ],
      [
        "により",
        -7.291851104184399
      ],
      [
        "機",
        -7.292316234660643
      ],
      [
        "へ",
        -7.301764415274693
      ],
      [
        "まで",
        -7.3093144585122545
      ],
      [
        "島",
        -7.317667912962635
      ],
      [
        "G",
        -7.32249978024082
      ],
      [
        "わ",
        -7.325757158457554
      ],
      [
        "F",
        -7.332185524294289
      ],
      [
        "c",
        -7.333620873484122
      ],
      [
        "北",
        -7.350913500688009
      ],
      [
        "三",
        -7.353621965916888
      ],
      [
        "チ",
        -7.356243110498676
      ],
      [
        "R",
        -7.35631230889615
      ],
      [
        "所",
        -7.361390712890078
      ],
      [
        "ター",
        -7.36268021323345
      ],
      [
        "o",
        -7.363027504468242
      ],
      [
        "物",
        -7.36303283131284
      ],
      [
        "より",
        -7.363822935506651
      ],
      [
        "ノ",
        -7.365280741798369
      ],
      [
        "南",
        -7.369789722074353
      ],
      [
        "スト",
        -7.369842749159732
      ],
      [
        "プ",
        -7.374865594972054
      ],
      [
        "ハ",
        -7.380943445069509
      ],
      [
        "テ",
        -7.38269701224783
      ],
      [
        "I",
        -7.386394367907295
      ],
      [
        "え",
        -7.388174936395801
      ],
      [
        "語",
        -7.389980893454185
      ],
      [
        "方",
        -7.390042856551235
      ],
      [
        "発",
        -7.3921926565789935
      ],
      [
        "いた",
        -7.394325000551637
      ],
      [
        "め",
        -7.395970101319042
      ],
      [
        "れ",
        -7.396738948815853
      ],
      [
        "金",
        -7.401558647382359
      ],
      [
        "時",
        -7.401781446729251
      ],
      [
        "西",
        -7.403574507669315
      ],
      [
        "力",
        -7.40795004134951
      ],
      [
        "ティ",
        -7.412031146211827
      ],
      [
        "ん",
        -7.419682209862991
      ],
      [
        "町",
        -7.42199203207921
      ],
      [
        "お",
        -7.428007055143373
      ],
      [
        "への",
        -7.430694845105952
      ],
      [
        "県",
        -7.432348314552506
      ],
      [
        "車",
        -7.433077627951215
      ],
      [
        "道",
        -7.442043600976028
      ],
      [
        "メ",
        -7.443319112010288
      ],
      [
        "i",
        -7.445742154401653
      ],
      [
        "O",
        -7.446067453194839
      ],
      [
        "L",
        -7.447365409352059
      ],
      [
        "全",
        -7.448137972318378
      ],
      [
        "海",
        -7.449308637384975
      ],
      [
        "不",
        -7.457328732800809
      ],
      [
        "野",
        -7.459300399241105
      ],
      [
        "外",
        -7.460380379214969
      ],
      [
        "主",
        -7.462514102505022
      ],
      [
        "入",
        -7.464960427863863
      ],
      [
        "となる",
        -7.468655963508644
      ],
      [
        "ット",
        -7.469422823200414
      ],
      [
        "州",
        -7.4735421188317375
      ],
      [
        "モ",
        -7.474453431210122
      ],
      [
        "作",
        -7.474907994496439
      ],
      [
        "デ",
        -7.475213696939884
      ],
      [
        "、「",
        -7.4777449991306835
      ],
      [
        "しかし",
        -7.478691281014635
      ],
      [
        "王",
        -7.48079308872895
      ],
      [
        "社",
        -7.49141594241542
      ],
      [
        "原",
        -7.493924321400272
      ],
      [
        "ネ",
        -7.496219559093962
      ],
      [
        "だった",
        -7.496565538525544
      ],
      [
        "ディ",
        -7.507896247513777
      ],
      [
        "ダ",
        -7.508058631951897
      ],
      [
        "点",
        -7.509313076024412
      ],
      [
        "パ",
        -7.51106086193823
      ],
      [
        "正",
        -7.512054733518688
      ],
      [
        "でも",
        -7.520092803347929
      ],
      [
        "面",
        -7.525880311025714
      ],
      [
        "N",
        -7.529074034741235
      ],
      [
        "ビ",
        -7.529491478593091
      ],
      [
        "p",
        -7.530446868513472
      ],
      [
        "元",
        -7.530693270797679
      ],
      [
        "駅",
        -7.53085714274037
      ],
      [
        "立",
        -7.531498062100086
      ],
      [
        "イン",
        -7.534390389252737
      ],
      [
        "あ",
        -7.541518918805934
      ],
      [
        "H",
        -7.554041011668144
      ],
      [
        "実",
        -7.55457903202624
      ],
      [
        "ボ",
        -7.556751259511206
      ],
      [
        "度",
        -7.559398472592234
      ],
      [
        "書",
        -7.56032532823243
      ],
      [
        "ック",
        -7.560787313083978
      ],
      [
        "セ",
        -7.567418418171998
      ],
      [
        "20",
        -7.571831059196738
      ],
      [
        "明",
        -7.572280661681031
      ],
      [
        "合",
        -7.575675285474379
      ],
      [
        "無",
        -7.577066152523225
      ],
      [
        "大学",
        -7.577420753915151
      ],
      [
        "重",
        -7.580392529205287
      ],
      [
        "目",
        -7.582145470975249
      ],
      [
        "形",
        -7.582709949547352
      ],
      [
        "神",
        -7.583036860760124
      ],
      [
        "ていた",
        -7.583780505503048
      ],
      [
        "17",
        -7.585609615524755
      ],
      [
        "じ",
        -7.601268242564366
      ],
      [
        "通",
        -7.605357488809522
      ],
      [
        "的に",
        -7.612893211009602
      ],
      [
        "なかった",
        -7.618107848249741
      ],
      [
        "18",
        -7.620123650706697
      ],
      [
        "ール",
        -7.620834639847503
      ],
      [
        "ロー",
        -7.624401894819558
      ],
      [
        "にも",
        -7.624618430522959
      ],
      [
        "場",
        -7.628255755719454
      ],
      [
        "られた",
        -7.628684512985526
      ],
      [
        "ツ",
        -7.63589441696101
      ],
      [
        "期",
        -7.640217707019989
      ],
      [
        "公",
        -7.645929634987869
      ],
      [
        "その後",
        -7.649780148564428
      ],
      [
        "天",
        -7.651854228395368
      ],
      [
        "動",
        -7.653398089121005
      ],
      [
        "約",
        -7.6564191659504015
      ],
      [
        "式",
        -7.6609728468412435
      ],
      [
        "流",
        -7.661999750375262
      ],
      [
        "0",
        -7.663298571049333
      ],
      [
        "ラー",
        -7.663497563025851
      ],
      [
        "W",
        -7.666224323253028
      ],
      [
        "マン",
        -7.666537437799054
      ],
      [
        "ガ",
        -7.670490355259441
      ],
      [
        "村",
        -7.6855494442305154
      ],
      [
        "K",
        -7.686243901450547
      ],
      [
        "間",
        -7.687384564150731
      ],
      [
        "レー",
        -7.688171941921434
      ],
      [
        "バー",
        -7.689316185366883
      ],
      [
        "文",
        -7.695041216953953
      ],
      [
        "代",
        -7.696332924848649
      ],
      [
        "ば",
        -7.697289189053466
      ],
      [
        "a",
        -7.697429508656
      ],
      [
        "などの",
        -7.699333035323704
      ],
      [
        "二",
        -7.699986025303909
      ],
      [
        "V",
        -7.700570422248736
      ],
      [
        "15",
        -7.70120598512635
      ],
      [
        "成",
        -7.704924808869142
      ],
      [
        "こと",
        -7.706989031359926
      ],
      [
        "石",
        -7.708837306285098
      ],
      [
        "気",
        -7.710490967255064
      ],
      [
        "号",
        -7.719936128776872
      ],
      [
        "世界",
        -7.72132206524376
      ],
      [
        "城",
        -7.724396736326861
      ],
      [
        "U",
        -7.73865469013429
      ],
      [
        "型",
        -7.739554280638989
      ],
      [
        ") ",
        -7.74629519207731
      ],
      [
        "平",
        -7.746730290874305
      ],
      [
        "木",
        -7.751657436041734
      ],
      [
        "着",
        -7.75340221536139
      ],
      [
        "昭和",
        -7.753432705197447
      ],
      [
        "ピ",
        -7.759802397429988
      ],
      [
        "16",
        -7.76074250089666
      ],
      [
        "理",
        -7.763247322921366
      ],
      [
        "け",
        -7.76469485927386
      ],
      [
        "J",
        -7.766025154282168
      ],
      [
        "アン",
        -7.766070541854615
      ],
      [
        "ヒ",
        -7.767793240271597
      ],
      [
        "直",
        -7.769885660236191
      ],
      [
        "ず",
        -7.770725141684475
      ],
      [
        "次",
        -7.773240769613624
      ],
      [
        "放送",
        -7.775737436304933
      ],
      [
        "ベ",
        -7.778297396384899
      ],
      [
        "信",
        -7.780727940397972
      ],
      [
        "初",
        -7.784905146924952
      ],
      [
        "ラン",
        -7.785615566870028
      ],
      [
        "後に",
        -7.786175351793895
      ],
      [
        "定",
        -7.792615719849023
      ],
      [
        "知",
        -7.793783491093642
      ],
      [
        "種",
        -7.7970379666094285
      ],
      [
        "において",
        -7.7971388392758225
      ],
      [
        "作品",
        -7.797669293896874
      ],
      [
        "u",
        -7.797813296953455
      ],
      [
        "g",
        -7.804406502679901
      ],
      [
        "っている",
        -7.80572515470141
      ],
      [
        "アル",
        -7.810229427821145
      ],
      [
        "集",
        -7.814954739416004
      ],
      [
        "ゴ",
        -7.818822494997098
      ],
      [
        ":",
        -7.819539734402232
      ],
      [
        "月に",
        -7.822283948305996
      ],
      [
        "区",
        -7.822379642067503
      ],
      [
        "有",
        -7.834187019308413
      ],
      [
        "コン",
        -7.840328993878416
      ],
      [
        "k",
        -7.843207961388545
      ],
      [
        "進",
        -7.8457728829164015
      ],
      [
        "ペ",
        -7.8472040077614444
      ],
      [
        "/",
        -7.847644576534437
      ],
      [
        "30",
        -7.847800075005031
      ],
      [
        ",",
        -7.851646821098537
      ],
      [
        "との",
        -7.8543631942889665
      ],
      [
        "馬",
        -7.855451437453965
      ],
      [
        "船",
        -7.855698238839887
      ],
      [
        "員",
        -7.857223284400607
      ],
      [
        "和",
        -7.860069651655092
      ],
      [
        "ソ",
        -7.862721781186735
      ],
      [
        "先",
        -7.8794483332529826
      ],
      [
        "こ",
        -7.880079488212875
      ],
      [
        "々",
        -7.881380105989281
      ],
      [
        "電",
        -7.882675875535835
      ],
      [
        "等",
        -7.886860136633494
      ],
      [
        "ち",
        -7.888729863519023
      ],
      [
        "最",
        -7.891253343147678
      ],
      [
        "役",
        -7.891281288200835
      ],
      [
        "当",
        -7.896100111733992
      ],
      [
        "t",
        -7.897010869489229
      ],
      [
        "世",
        -7.901398942272889
      ],
      [
        "レン",
        -7.906029608120615
      ],
      [
        "郡",
        -7.911988451065616
      ],
      [
        "だ",
        -7.913314723408309
      ],
      [
        "対",
        -7.9157050722353635
      ],
      [
        "せ",
        -7.915719589163265
      ],
      [
        "リン",
        -7.919558655372873
      ],
      [
        "14",
        -7.919998059107854
      ],
      [
        "制",
        -7.920346492966212
      ],
      [
        "頭",
        -7.920755785009588
      ],
      [
        "地域",
        -7.92582052327735
      ],
      [
        "決",
        -7.925983782058468
      ],
      [
        "および",
        -7.927068676704208
      ],
      [
        "もの",
        -7.928462921355749
      ],
      [
        "活動",
        -7.930503732592175
      ],
      [
        "色",
        -7.934364625889293
      ],
      [
        "局",
        -7.935894975228802
      ],
      [
        "んだ",
        -7.937285761352793
      ],
      [
        "それ",
        -7.941084253077952
      ],
      [
        "達",
        -7.942971796172726
      ],
      [
        "系",
        -7.944913588601576
      ],
      [
        "n",
        -7.9470910535647
      ],
      [
        "ザ",
        -7.947799442382349
      ],
      [
        "さらに",
        -7.948177249378002
      ],
      [
        "ライ",
        -7.949355661290337
      ],
      [
        "話",
        -7.949742164214639
      ],
      [
        "勝",
        -7.950353487089126
      ],
      [
        "ダー",
        -7.950832185152425
      ],
      [
        "人の",
        -7.953446917073844
      ],
      [
        "年には",
        -7.954464557820428
      ],
      [
        "となり",
        -7.958145644478954
      ],
      [
        "13",
        -7.958487950948058
      ],
      [
        "総",
        -7.960274162662744
      ],
      [
        "記",
        -7.962261277094955
      ],
      [
        "できる",
        -7.962870226023512
      ],
      [
        "口",
        -7.964883559955894
      ],
      [
        "言",
        -7.96821201344644
      ],
      [
        "カー",
        -7.971895086141949
      ],
      [
        "開",
        -7.972371458093326
      ],
      [
        "各",
        -7.975226843873841
      ],
      [
        "アメリカ",
        -7.975417706523867
      ],
      [
        "にある",
        -7.977322591817245
      ],
      [
        "なく",
        -7.977682014516485
      ],
      [
        "年の",
        -7.98417423512409
      ],
      [
        "っ",
        -7.98754408432093
      ],
      [
        "ポ",
        -7.994112259888677
      ],
      [
        "ケ",
        -7.997059282059299
      ],
      [
        "台",
        -7.999642219947056
      ],
      [
        "サン",
        -8.003341619328399
      ],
      [
        "使用",
        -8.005097293193236
      ],
      [
        "意",
        -8.005282542938282
      ],
      [
        "土",
        -8.008502014334573
      ],
      [
        "朝",
        -8.009254857878767
      ],
      [
        "隊",
        -8.009338231525616
      ],
      [
        "両",
        -8.00936882050424
      ],
      [
        "曲",
        -8.010021267886504
      ],
      [
        "ーン",
        -8.010031156071353
      ],
      [
        "y",
        -8.014707150880712
      ],
      [
        "安",
        -8.015105409205413
      ],
      [
        "られ",
        -8.015423351353931
      ],
      [
        "映画",
        -8.017181601197631
      ],
      [
        "変",
        -8.017729569745448
      ],
      [
        "む",
        -8.018364649011545
      ],
      [
        "量",
        -8.020228680706566
      ],
      [
        "広",
        -8.028044710458081
      ],
      [
        "なお",
        -8.029835339404645
      ],
      [
        "白",
        -8.029963374291345
      ],
      [
        "すること",
        -8.030829196551963
      ],
      [
        "とする",
        -8.032962797865887
      ],
      [
        "宮",
        -8.037140470554165
      ],
      [
        "\"",
        -8.037540720711918
      ],
      [
        "多",
        -8.046764690613545
      ],
      [
        "自",
        -8.047368380210427
      ],
      [
        "番",
        -8.04961505340714
      ],
      [
        "チーム",
        -8.050556095019855
      ],
      [
        "東京",
        -8.05600205000524
      ],
      [
        "現",
        -8.05661872987915
      ],
      [
        "b",
        -8.056662018617418
      ],
      [
        "党",
        -8.058438102306406
      ],
      [
        "撃",
        -8.060977123092291
      ],
      [
        "兵",
        -8.061731546731664
      ],
      [
        "官",
        -8.06509864863296
      ],
      [
        "ように",
        -8.06534772376453
      ],
      [
        "- ",
        -8.067853131836374
      ],
      [
        "試合",
        -8.068650241825873
      ],
      [
        "における",
        -8.070278501830389
      ],
      [
        "er",
        -8.071517689994138
      ],
      [
        "ヤ",
        -8.073243551519163
      ],
      [
        "について",
        -8.075588881950528
      ],
      [
        "よう",
        -8.07936373298608
      ],
      [
        "とは",
        -8.081536760752744
      ],
      [
        "時間",
        -8.085650139818432
      ],
      [
        "退",
        -8.086361983525503
      ],
      [
        "d",
        -8.088530214406969
      ],
      [
        "l",
        -8.089980871965214
      ],
      [
        "マー",
        -8.092653632187632
      ],
      [
        "同年",
        -8.093154317520234
      ],
      [
        "万",
        -8.098011669039538
      ],
      [
        "死",
        -8.098234902634156
      ],
      [
        "心",
        -8.101344322059402
      ],
      [
        "権",
        -8.102925402382745
      ],
      [
        "音",
        -8.103531030694114
      ],
      [
        "風",
        -8.103652485828116
      ],
      [
        "スター",
        -8.104561911779617
      ],
      [
        "例",
        -8.1066028153209
      ],
      [
        "鉄道",
        -8.107091711908872
      ],
      [
        "ある",
        -8.108371857446876
      ],
      [
        "ること",
        -8.11353336872218
      ],
      [
        "ことを",
        -8.114786818382948
      ],
      [
        "教",
        -8.11651548957305
      ],
      [
        "プロ",
        -8.116844489287518
      ],
      [
        "産",
        -8.119592837826517
      ],
      [
        "f",
        -8.120967693893062
      ],
      [
        "っていた",
        -8.12170615887061
      ],
      [
        "版",
        -8.12262503934785
      ],
      [
        "とも",
        -8.123433801485426
      ],
      [
        "ワ",
        -8.125823649781141
      ],
      [
        "乗",
        -8.126657199763208
      ],
      [
        "られる",
        -8.126676683849961
      ],
      [
        "解",
        -8.128002875222732
      ],
      [
        "井",
        -8.134145558244594
      ],
      [
        "級",
        -8.134498122157344
      ],
      [
        "フランス",
        -8.135467873871459
      ],
      [
        "h",
        -8.13665892640561
      ],
      [
        "or",
        -8.14012885569076
      ],
      [
        "シュ",
        -8.140509988227537
      ],
      [
        "光",
        -8.140531626577983
      ],
      [
        "ど",
        -8.140648443217216
      ],
      [
        "路",
        -8.140776051784831
      ],
      [
        "近",
        -8.143267287312515
      ],
      [
        "保",
        -8.143732234433658
      ],
      [
        "開発",
        -8.145655515030203
      ],
      [
        "=",
        -8.145985629538325
      ],
      [
        "シーズン",
        -8.146371538631055
      ],
      [
        "ソン",
        -8.146837012562733
      ],
      [
        "任",
        -8.147468580267134
      ],
      [
        "再",
        -8.151189030771048
      ],
      [
        "民",
        -8.152989481521534
      ],
      [
        "反",
        -8.154097264488497
      ],
      [
        "義",
        -8.155537801677413
      ],
      [
        "橋",
        -8.156450993444912
      ],
      [
        "これは",
        -8.157800634610926
      ],
      [
        "アー",
        -8.15922952759316
      ],
      [
        "番組",
        -8.159315160370348
      ],
      [
        "e ",
        -8.162568159949943
      ],
      [
        "空",
        -8.164666538351096
      ],
      [
        "論",
        -8.166895253254626
      ],
      [
        "派",
        -8.167707159413917
      ],
      [
        "店",
        -8.169080144230021
      ],
      [
        "側",
        -8.169787665079458
      ],
      [
        "利用",
        -8.169893481301441
      ],
      [
        "当時",
        -8.172248703224767
      ],
      [
        "ップ",
        -8.173388284212772
      ],
      [
        "場合",
        -8.175434508036766
      ],
      [
        "取",
        -8.175706860259014
      ],
      [
        "院",
        -8.176438394349278
      ],
      [
        "存在",
        -8.176483273005303
      ],
      [
        "げ",
        -8.176817389454177
      ],
      [
        "問題",
        -8.179164143921575
      ],
      [
        "食",
        -8.18208700423439
      ],
      [
        "付",
        -8.182959124060462
      ],
      [
        "世紀",
        -8.184000736031836
      ],
      [
        "松",
        -8.186711834895332
      ],
      [
        "多くの",
        -8.187926175629565
      ],
      [
        "団",
        -8.1888564385126
      ],
      [
        "ドイツ",
        -8.18925254084313
      ],
      [
        "en",
        -8.189582234429626
      ],
      [
        "別",
        -8.19005369414817
      ],
      [
        "25",
        -8.190654830448587
      ],
      [
        "強",
        -8.191655386309884
      ],
      [
        "シー",
        -8.192126893328124
      ],
      [
        "増",
        -8.193843692139897
      ],
      [
        "務",
        -8.195126060723467
      ],
      [
        "ヴィ",
        -8.195797726085162
      ],
      [
        "武",
        -8.197359458448984
      ],
      [
        "たち",
        -8.20192201195682
      ],
      [
        "賞",
        -8.202109085794765
      ],
      [
        "他",
        -8.202202719874926
      ],
      [
        "時代",
        -8.20308883985096
      ],
      [
        "されていた",
        -8.204283024387907
      ],
      [
        "テレビ",
        -8.205782192696853
      ],
      [
        "寺",
        -8.206186240894086
      ],
      [
        "に対して",
        -8.207415801181277
      ],
      [
        "相",
        -8.209330333184823
      ],
      [
        "トン",
        -8.209721134450477
      ],
      [
        "歌",
        -8.211664378341421
      ],
      [
        "参加",
        -8.212041580852405
      ],
      [
        "館",
        -8.212992631473178
      ],
      [
        "関係",
        -8.213674009100636
      ],
      [
        "での",
        -8.213909583504432
      ],
      [
        "科",
        -8.215022783136527
      ],
      [
        "政",
        -8.216267808993758
      ],
      [
        "フィ",
        -8.216633409678568
      ],
      [
        "艦",
        -8.217478994078265
      ],
      [
        "選",
        -8.217834867765017
      ],
      [
        ", ",
        -8.218405734608039
      ],
      [
        "異",
        -8.218721358997566
      ],
      [
        "のみ",
        -8.218812111684475
      ],
      [
        "身",
        -8.221253371873619
      ],
      [
        "代表",
        -8.221696582388029
      ],
      [
        "室",
        -8.222348476932975
      ],
      [
        "歳",
        -8.2228409583429
      ],
      [
        "研究",
        -8.224011666079372
      ],
      [
        "となっている",
        -8.224369992957097
      ],
      [
        "があり",
        -8.22443640675471
      ],
      [
        "戦争",
        -8.225400771157906
      ],
      [
        "女",
        -8.225992084318076
      ],
      [
        "旧",
        -8.226759322143414
      ],
      [
        "リア",
        -8.228105497590548
      ],
      [
        "調",
        -8.228388999204283
      ],
      [
        "使",
        -8.229218019633667
      ],
      [
        "ar",
        -8.230006418737254
      ],
      [
        "ゲーム",
        -8.232450450157017
      ],
      [
        "ており",
        -8.234728852677927
      ],
      [
        "士",
        -8.236051176257455
      ],
      [
        "すると",
        -8.239752526343858
      ],
      [
        "ジェ",
        -8.241387691251385
      ],
      [
        "年から",
        -8.241870192910135
      ],
      [
        "ホ",
        -8.245045579662884
      ],
      [
        "政府",
        -8.247399293146504
      ],
      [
        "送",
        -8.24776754084328
      ],
      [
        "日の",
        -8.251976114851644
      ],
      [
        "品",
        -8.252095957898646
      ],
      [
        "ギ",
        -8.256498616329093
      ],
      [
        "リーグ",
        -8.261871266027267
      ],
      [
        "質",
        -8.262847973123723
      ],
      [
        "in",
        -8.264178679678892
      ],
      [
        "学校",
        -8.266611138905665
      ],
      [
        "向",
        -8.267262627914544
      ],
      [
        "ナー",
        -8.267404252283054
      ],
      [
        "説",
        -8.270584239330969
      ],
      [
        "常",
        -8.270783543329228
      ],
      [
        "会社",
        -8.272744801391925
      ],
      [
        "れた",
        -8.274691897603809
      ],
      [
        "連",
        -8.274955455395078
      ],
      [
        "ゼ",
        -8.276135400433237
      ],
      [
        "計画",
        -8.27668329530816
      ],
      [
        "視",
        -8.277469038208308
      ],
      [
        "加",
        -8.27928624772836
      ],
      [
        "しており",
        -8.280370302806036
      ],
      [
        "べ",
        -8.282119422807066
      ],
      [
        "そして",
        -8.28273371470076
      ],
      [
        "氏",
        -8.283348121679328
      ],
      [
        "ことが",
        -8.283374169374355
      ],
      [
        "ね",
        -8.283527391580394
      ],
      [
        "装",
        -8.285082013115538
      ],
      [
        "末",
        -8.291114113199257
      ],
      [
        "r",
        -8.293076630294603
      ],
      [
        "シリーズ",
        -8.294064806045595
      ],
      [
        "職",
        -8.295040798277972
      ],
      [
        "明治",
        -8.296136925183093
      ],
      [
        "好",
        -8.29654958001093
      ],
      [
        "モン",
        -8.296875193471273
      ],
      [
        "ニー",
        -8.298558991598542
      ],
      [
        "える",
        -8.299282249760804
      ],
      [
        "50",
        -8.301107131024848
      ],
      [
        "パー",
        -8.301364956780148
      ],
      [
        "中国",
        -8.308176660439495
      ],
      [
        "になった",
        -8.309318435684242
      ],
      [
        "在",
        -8.310261240240832
      ],
      [
        "シャ",
        -8.310892930869457
      ],
      [
        "X",
        -8.311881002052619
      ],
      [
        "年代",
        -8.311924089687812
      ],
      [
        "開始",
        -8.31270678399475
      ],
      [
        "現在",
        -8.313512585114673
      ],
      [
        "つの",
        -8.313687676365753
      ],
      [
        "関",
        -8.313989683258525
      ],
      [
        "素",
        -8.314756076439881
      ],
      [
        "藤",
        -8.316462469942772
      ],
      [
        "いて",
        -8.317088340627167
      ],
      [
        "ブル",
        -8.318246763413468
      ],
      [
        "ックス",
        -8.318292039209458
      ],
      [
        "省",
        -8.319311449537892
      ],
      [
        "領",
        -8.322514348161798
      ],
      [
        "都市",
        -8.325511943011799
      ],
      [
        "河",
        -8.327554231789131
      ],
      [
        "四",
        -8.327763246444341
      ],
      [
        "母",
        -8.329348381938384
      ],
      [
        "砲",
        -8.32987623241724
      ],
      [
        "平成",
        -8.330968915511235
      ],
      [
        "w",
        -8.332266900780562
      ],
      [
        "になる",
        -8.334130890610412
      ],
      [
        "米",
        -8.33601166479121
      ],
      [
        "を受け",
        -8.338045500503814
      ],
      [
        "エン",
        -8.338827519143257
      ],
      [
        "火",
        -8.3401167309664
      ],
      [
        "渡",
        -8.341085592448099
      ],
      [
        "21",
        -8.342742900739413
      ],
      [
        "谷",
        -8.34299584484205
      ],
      [
        "入れ",
        -8.344488025863635
      ],
      [
        "基",
        -8.345200083495989
      ],
      [
        "日本の",
        -8.345861946846137
      ],
      [
        "敗",
        -8.349483274123736
      ],
      [
        "様",
        -8.350192061698685
      ],
      [
        "造",
        -8.35099415065161
      ],
      [
        "屋",
        -8.35150548056355
      ],
      [
        "したが",
        -8.352414849915466
      ],
      [
        "24",
        -8.354195848187517
      ],
      [
        "来",
        -8.35553936046357
      ],
      [
        "率",
        -8.356051345371023
      ],
      [
        "フェ",
        -8.35622893030727
      ],
      [
        "工",
        -8.358689478973126
      ],
      [
        "特",
        -8.359880450913298
      ],
      [
        "真",
        -8.360147661284296
      ],
      [
        "半",
        -8.362634627261983
      ],
      [
        "落",
        -8.364164342365406
      ],
      [
        "ぶ",
        -8.36578488762699
      ],
      [
        "カル",
        -8.365949315075625
      ],
      [
        "an",
        -8.367250872703766
      ],
      [
        "配",
        -8.367620818214057
      ],
      [
        "愛",
        -8.369685258794137
      ],
      [
        "び",
        -8.369803614277691
      ],
      [
        "ヘ",
        -8.370183337541748
      ],
      [
        "攻撃",
        -8.370653350170073
      ],
      [
        "国際",
        -8.370788300120134
      ],
      [
        "族",
        -8.373835547912124
      ],
      [
        "親",
        -8.377970285463633
      ],
      [
        "残",
        -8.381871243182376
      ],
      [
        "表",
        -8.38329588091829
      ],
      [
        "組",
        -8.386414078166071
      ],
      [
        "イギリス",
        -8.386595785205726
      ],
      [
        "古",
        -8.386697642480835
      ],
      [
        "社会",
        -8.389228044375727
      ],
      [
        "断",
        -8.390929599280009
      ],
      [
        "記録",
        -8.391325099052155
      ],
      [
        "もある",
        -8.391989065193895
      ],
      [
        "on",
        -8.39588528234787
      ],
      [
        "大会",
        -8.396596153864145
      ],
      [
        "とした",
        -8.397961803504215
      ],
      [
        "切",
        -8.399973493861646
      ],
      [
        "オー",
        -8.400712791683368
      ],
      [
        "ファ",
        -8.40399195914915
      ],
      [
        "業",
        -8.404250996830676
      ],
      [
        "これ",
        -8.405128124989913
      ],
      [
        "サー",
        -8.408262323545467
      ],
      [
        "』(",
        -8.408473244174084
      ],
      [
        "他の",
        -8.409754779764778
      ],
      [
        "地方",
        -8.409919764753893
      ],
      [
        "門",
        -8.410889257476764
      ],
      [
        "花",
        -8.41248743651412
      ],
      [
        "があった",
        -8.412647320216232
      ],
      [
        "男",
        -8.416310840550407
      ],
      [
        "ルー",
        -8.418727325543292
      ],
      [
        "岡",
        -8.418783153811614
      ],
      [
        "特に",
        -8.418796650375189
      ],
      [
        "22",
        -8.419940657766999
      ],
      [
        "ジャ",
        -8.42121408037772
      ],
      [
        "父",
        -8.421767826398018
      ],
      [
        "収",
        -8.422595433646185
      ],
      [
        "接",
        -8.426675003942542
      ],
      [
        "ビー",
        -8.42680682710532
      ],
      [
        "建設",
        -8.42765812465591
      ],
      [
        "単",
        -8.42840350374028
      ],
      [
        "バス",
        -8.428462360762673
      ],
      [
        "失",
        -8.428590577322908
      ],
      [
        "」(",
        -8.429163009753827
      ],
      [
        "事件",
        -8.430167741926189
      ],
      [
        "00",
        -8.430186685957786
      ],
      [
        "今",
        -8.430303677480458
      ],
      [
        "結",
        -8.43377096728617
      ],
      [
        "条",
        -8.434117842533364
      ],
      [
        "23",
        -8.435880932401092
      ],
      [
        "伝",
        -8.43620868349406
      ],
      [
        "監督",
        -8.436583606448822
      ],
      [
        "住",
        -8.436593625706406
      ],
      [
        "楽",
        -8.437383570681956
      ],
      [
        "結果",
        -8.438790993217951
      ],
      [
        "星",
        -8.439422877912849
      ],
      [
        "美",
        -8.439471616137533
      ],
      [
        "利",
        -8.440677840244659
      ],
      [
        "われ",
        -8.442063633362437
      ],
      [
        "契約",
        -8.443519044986934
      ],
      [
        "ほど",
        -8.446221679591865
      ],
      [
        "夫",
        -8.446802189372683
      ],
      [
        "破",
        -8.44720060996293
      ],
      [
        "器",
        -8.448019728620322
      ],
      [
        "佐",
        -8.448585861111676
      ],
      [
        "事業",
        -8.449323010099674
      ],
      [
        "編",
        -8.450141413564001
      ],
      [
        "音楽",
        -8.452845284735343
      ],
      [
        "とともに",
        -8.454583226232993
      ],
      [
        "命",
        -8.455479068071645
      ],
      [
        "ッド",
        -8.455993652525013
      ],
      [
        "キャ",
        -8.457958860199966
      ],
      [
        "者の",
        -8.459233639375443
      ],
      [
        "校",
        -8.459357358309662
      ],
      [
        "km",
        -8.464338450748551
      ],
      [
        "起",
        -8.464709625651
      ],
      [
        "必要",
        -8.465226712452848
      ],
      [
        "中央",
        -8.466832008115318
      ],
      [
        "現在の",
        -8.467437763107949
      ],
      [
        "満",
        -8.46752630365264
      ],
      [
        "部分",
        -8.469259942014448
      ],
      [
        "格",
        -8.469744070078203
      ],
      [
        "re",
        -8.47028284941948
      ],
      [
        "取り",
        -8.474456618753159
      ],
      [
        "28",
        -8.475516321605957
      ],
      [
        "師",
        -8.476816195452443
      ],
      [
        "ニア",
        -8.478596690020161
      ],
      [
        "教育",
        -8.480842859811734
      ],
      [
        "黒",
        -8.481296002879795
      ],
      [
        "と呼ばれる",
        -8.482415736696531
      ],
      [
        "ハー",
        -8.483628558640556
      ],
      [
        "経済",
        -8.484546272906693
      ],
      [
        "太",
        -8.488006242638098
      ],
      [
        "27",
        -8.490244937279357
      ],
      [
        "波",
        -8.490366368147061
      ],
      [
        "だけ",
        -8.490441146616872
      ],
      [
        "からの",
        -8.490654297462415
      ],
      [
        "後の",
        -8.492076770026992
      ],
      [
        "26",
        -8.493543539258836
      ],
      [
        "レス",
        -8.49664021533516
      ],
      [
        "前に",
        -8.499297469861139
      ],
      [
        "かった",
        -8.499329353426818
      ],
      [
        "域",
        -8.499578370307033
      ],
      [
        "赤",
        -8.500650373219537
      ],
      [
        "字",
        -8.502288819485418
      ],
      [
        "以降",
        -8.50329491667678
      ],
      [
        "十",
        -8.506677434490037
      ],
      [
        "レイ",
        -8.506908985313926
      ],
      [
        "交",
        -8.508577187627768
      ],
      [
        "青",
        -8.509168085554013
      ],
      [
        "ことから",
        -8.510224063416551
      ],
      [
        "めた",
        -8.511757130022886
      ],
      [
        "40",
        -8.512000822387334
      ],
      [
        "だが",
        -8.512664835771048
      ],
      [
        "留",
        -8.512667120641938
      ],
      [
        "帯",
        -8.512791297510823
      ],
      [
        "選手",
        -8.51655183697028
      ],
      [
        "ic",
        -8.519295042083304
      ],
      [
        "経",
        -8.521368287458376
      ],
      [
        "文化",
        -8.521837651725832
      ],
      [
        "料",
        -8.52304638043449
      ],
      [
        "」「",
        -8.523211118873524
      ],
      [
        "ガー",
        -8.523710117362066
      ],
      [
        "を持つ",
        -8.524567211045333
      ],
      [
        "英",
        -8.524724424222828
      ],
      [
        "司",
        -8.525673931433328
      ],
      [
        "運",
        -8.52896606159933
      ],
      [
        "続",
        -8.533796381483732
      ],
      [
        "年間",
        -8.535275238504564
      ],
      [
        "を行う",
        -8.53848001621619
      ],
      [
        "優勝",
        -8.54310739807519
      ],
      [
        "ロン",
        -8.54357443174808
      ],
      [
        "s ",
        -8.544840792626458
      ],
      [
        "に対する",
        -8.545074028546258
      ],
      [
        "得",
        -8.545174749407249
      ],
      [
        "類",
        -8.545646220289187
      ],
      [
        "津",
        -8.546200278639962
      ],
      [
        "低",
        -8.546260387904637
      ],
      [
        "状態",
        -8.547028519322915
      ],
      [
        "弾",
        -8.548399661248098
      ],
      [
        "ボー",
        -8.54951630238722
      ],
      [
        "ション",
        -8.54972803545688
      ],
      [
        "急",
        -8.550437405571188
      ],
      [
        "座",
        -8.550805520454908
      ],
      [
        "エル",
        -8.550820668694126
      ],
      [
        "タイ",
        -8.551631510832665
      ],
      [
        "ぐ",
        -8.552308951344951
      ],
      [
        "%",
        -8.552698379005255
      ],
      [
        "れる",
        -8.5531858906504
      ],
      [
        "部隊",
        -8.553275071793868
      ],
      [
        "にて",
        -8.554875476342238
      ],
      [
        "チェ",
        -8.55493362957002
      ],
      [
        "状",
        -8.555268950455632
      ],
      [
        "タン",
        -8.555461969571967
      ],
      [
        "しい",
        -8.55785938807699
      ],
      [
        "、『",
        -8.557894385861225
      ],
      [
        "薬",
        -8.559736139745812
      ],
      [
        "情報",
        -8.560089593866268
      ],
      [
        "29",
        -8.560580173228814
      ],
      [
        "出場",
        -8.56088931386794
      ],
      [
        "鉄",
        -8.561322203038038
      ],
      [
        "越",
        -8.562194803546937
      ],
      [
        "2010",
        -8.562722366362244
      ],
      [
        "建",
        -8.565851026778054
      ],
      [
        "採用",
        -8.566773232623126
      ],
      [
        "技術",
        -8.56678751048506
      ],
      [
        "アイ",
        -8.56739673644773
      ],
      [
        "ドル",
        -8.567566919062026
      ],
      [
        "管",
        -8.567723024293135
      ],
      [
        "場所",
        -8.56777947399238
      ],
      [
        "選挙",
        -8.568764305441297
      ],
      [
        "ひ",
        -8.569778064342536
      ],
      [
        "陸",
        -8.570117252888673
      ],
      [
        "客",
        -8.570135240515555
      ],
      [
        "以",
        -8.570424786085207
      ],
      [
        "ではなく",
        -8.570476063889812
      ],
      [
        "支",
        -8.570536310509578
      ],
      [
        "何",
        -8.570676610772006
      ],
      [
        "させ",
        -8.570895401692992
      ],
      [
        "登場",
        -8.572014702761827
      ],
      [
        "ランド",
        -8.572528995898478
      ],
      [
        "称",
        -8.5737510970568
      ],
      [
        "足",
        -8.574321004650782
      ],
      [
        "システム",
        -8.574865768390865
      ],
      [
        "殺",
        -8.57596145052341
      ],
      [
        "図",
        -8.578982566266546
      ],
      [
        "それぞれ",
        -8.57950039049049
      ],
      [
        "商",
        -8.579993540773634
      ],
      [
        "聖",
        -8.580626165912635
      ],
      [
        "90",
        -8.5844128743604
      ],
      [
        "五",
        -8.584503033631714
      ],
      [
        "しく",
        -8.589881184801579
      ],
      [
        "ベル",
        -8.589893191697797
      ],
      [
        "京",
        -8.59001965189015
      ],
      [
        "主義",
        -8.59003937306765
      ],
      [
        "カン",
        -8.59299761327763
      ],
      [
        "と共に",
        -8.594222661207574
      ],
      [
        "コー",
        -8.596981800230791
      ],
      [
        "ろ",
        -8.597176913619567
      ],
      [
        "速",
        -8.598087090230022
      ],
      [
        "v",
        -8.599533782578769
      ],
      [
        "圧",
        -8.600127898012
      ],
      [
        "端",
        -8.600397297806506
      ],
      [
        "ところ",
        -8.60195447436281
      ],
      [
        "決定",
        -8.602108919263591
      ],
      [
        "吉",
        -8.603495326775565
      ],
      [
        "球",
        -8.603540418291628
      ],
      [
        "ると",
        -8.605155956344255
      ],
      [
        "大きな",
        -8.607480144793273
      ],
      [
        "マル",
        -8.608132402536366
      ],
      [
        "感",
        -8.608889347859561
      ],
      [
        "製",
        -8.609422685146304
      ],
      [
        "女性",
        -8.610421888262708
      ],
      [
        "容",
        -8.610825268316196
      ],
      [
        "ものの",
        -8.61242531092379
      ],
      [
        "転",
        -8.617861491195177
      ],
      [
        "よ",
        -8.618892595269704
      ],
      [
        "ながら",
        -8.619258176363601
      ],
      [
        "福",
        -8.620298611977503
      ],
      [
        "案",
        -8.621494811510026
      ],
      [
        ": ",
        -8.62176104549504
      ],
      [
        "ノー",
        -8.623111291137437
      ],
      [
        "久",
        -8.623951667801053
      ],
      [
        "シン",
        -8.62503137097703
      ],
      [
        "バイ",
        -8.625148317135041
      ],
      [
        "としては",
        -8.627019855174284
      ],
      [
        "2011",
        -8.627699788769855
      ],
      [
        "については",
        -8.628890520705244
      ],
      [
        "100",
        -8.629418137074543
      ],
      [
        "移",
        -8.629553837214898
      ],
      [
        "ハン",
        -8.629716103953637
      ],
      [
        "円",
        -8.6300906795835
      ],
      [
        "地区",
        -8.630303813581587
      ],
      [
        "2008",
        -8.630786727166862
      ],
      [
        "尾",
        -8.630791118426124
      ],
      [
        "差",
        -8.631104776315922
      ],
      [
        "洋",
        -8.63169663511481
      ],
      [
        "ジョン",
        -8.631916235672612
      ],
      [
        "させる",
        -8.63200670903827
      ],
      [
        "付け",
        -8.634786372038484
      ],
      [
        "2009",
        -8.634844748922866
      ],
      [
        "治",
        -8.639023385437048
      ],
      [
        "声",
        -8.639196819963823
      ],
      [
        "上げ",
        -8.639290763231394
      ],
      [
        "走",
        -8.642745018034303
      ],
      [
        "中に",
        -8.642951969907067
      ],
      [
        "角",
        -8.643103078498498
      ],
      [
        "調査",
        -8.643351180012468
      ],
      [
        "ジュ",
        -8.64447310622663
      ],
      [
        "思",
        -8.644736872296662
      ],
      [
        "ch",
        -8.645504720459975
      ],
      [
        "2007",
        -8.646121301439116
      ],
      [
        "観",
        -8.646808220733831
      ],
      [
        "以上",
        -8.647655598507725
      ],
      [
        "防",
        -8.648529083701968
      ],
      [
        "清",
        -8.649747009963953
      ],
      [
        "放",
        -8.650248901533006
      ],
      [
        "開催",
        -8.650591108958617
      ],
      [
        "ゲ",
        -8.65103114037204
      ],
      [
        "組織",
        -8.651119488976708
      ],
      [
        "及び",
        -8.651907801495065
      ],
      [
        "打",
        -8.652243161335877
      ],
      [
        "られている",
        -8.652625603822381
      ],
      [
        "といった",
        -8.652649072581303
      ],
      [
        "機関",
        -8.653492289661319
      ],
      [
        "修",
        -8.65604675979483
      ],
      [
        "ング",
        -8.656651526337091
      ],
      [
        "改",
        -8.65724094586482
      ],
      [
        "なる",
        -8.657342888574407
      ],
      [
        "列車",
        -8.658292050362672
      ],
      [
        "際",
        -8.659005623917837
      ],
      [
        "崎",
        -8.659875860662657
      ],
      [
        "悪",
        -8.660216297785064
      ],
      [
        "計",
        -8.660429336720563
      ],
      [
        "最も",
        -8.660794745812963
      ],
      [
        "を見",
        -8.662590311957484
      ],
      [
        "んで",
        -8.663729173092541
      ],
      [
        "かけ",
        -8.666214843439041
      ],
      [
        "le",
        -8.666972678343674
      ],
      [
        "Y",
        -8.667148388645094
      ],
      [
        "ッチ",
        -8.667995375564992
      ],
      [
        "させた",
        -8.668365724823996
      ],
      [
        "リング",
        -8.66837544826683
      ],
      [
        "良",
        -8.669333991449035
      ],
      [
        "ただし",
        -8.66935443380138
      ],
      [
        "ヌ",
        -8.669377707790936
      ],
      [
        "当時の",
        -8.671000579060337
      ],
      [
        "の中で",
        -8.673177479932807
      ],
      [
        "春",
        -8.67378528171697
      ],
      [
        "いる",
        -8.675237257327979
      ],
      [
        "源",
        -8.67542180252148
      ],
      [
        "勝利",
        -8.67728789237147
      ],
      [
        "されて",
        -8.678037909142208
      ],
      [
        "高い",
        -8.678545241525278
      ],
      [
        "オン",
        -8.678657488357107
      ],
      [
        "議会",
        -8.679373385843798
      ],
      [
        "ご",
        -8.683156812658257
      ],
      [
        "販売",
        -8.683415045333582
      ],
      [
        "トル",
        -8.683809690336977
      ],
      [
        "生産",
        -8.684500438028309
      ],
      [
        "グラ",
        -8.685633115650207
      ],
      [
        "林",
        -8.687983273121812
      ],
      [
        "群",
        -8.688068518254896
      ],
      [
        "航",
        -8.690638721926293
      ],
      [
        "ガン",
        -8.691797395139591
      ],
      [
        "時に",
        -8.69184326384159
      ],
      [
        "ロシア",
        -8.691954396575612
      ],
      [
        "製造",
        -8.692575251975889
      ],
      [
        "目的",
        -8.695647269348976
      ],
      [
        "チャ",
        -8.697421875254298
      ],
      [
        "熱",
        -8.700463465985164
      ],
      [
        "60",
        -8.701172332488312
      ],
      [
        "私",
        -8.701175793599605
      ],
      [
        "述",
        -8.701638778250379
      ],
      [
        "クス",
        -8.702041387449892
      ],
      [
        "従",
        -8.702286403789062
      ],
      [
        "なり",
        -8.702289201513134
      ],
      [
        "人が",
        -8.705217272952362
      ],
      [
        "初めて",
        -8.706693349022116
      ],
      [
        "al",
        -8.70905756583824
      ],
      [
        "千",
        -8.709932936350215
      ],
      [
        "層",
        -8.709959575241747
      ],
      [
        "ハイ",
        -8.710209836854913
      ],
      [
        "ほとんど",
        -8.710918526372746
      ],
      [
        "バル",
        -8.7127202599443
      ],
      [
        "個",
        -8.712914397908035
      ],
      [
        "根",
        -8.713074063983573
      ],
      [
        "車両",
        -8.713185565390123
      ],
      [
        "31",
        -8.714458241509398
      ],
      [
        "画",
        -8.714851378254561
      ],
      [
        "th",
        -8.71525811379879
      ],
      [
        "彼は",
        -8.71541656546906
      ],
      [
        "首",
        -8.716768412948193
      ],
      [
        "丸",
        -8.717854640854428
      ],
      [
        "極",
        -8.718032452544085
      ],
      [
        "2006",
        -8.718268247104058
      ],
      [
        "発売",
        -8.718592838189858
      ],
      [
        "同じ",
        -8.719998619006537
      ],
      [
        "敵",
        -8.72007471474284
      ],
      [
        "養",
        -8.722718849062792
      ],
      [
        "ほか",
        -8.723089962937724
      ],
      [
        "運動",
        -8.723696012889858
      ],
      [
        "クリ",
        -8.725316236741955
      ],
      [
        "に関する",
        -8.728484331305886
      ],
      [
        "祭",
        -8.729093443187082
      ],
      [
        "勢",
        -8.72989802608448
      ],
      [
        "機能",
        -8.73080543927724
      ],
      [
        "デン",
        -8.731693095281416
      ],
      [
        "受",
        -8.73264847565262
      ],
      [
        "教会",
        -8.732998584518446
      ],
      [
        "血",
        -8.733856575821903
      ],
      [
        "えた",
        -8.735245897047376
      ],
      [
        "のような",
        -8.736064259863467
      ],
      [
        "自由",
        -8.73761409878778
      ],
      [
        "it",
        -8.737917090929677
      ],
      [
        "通り",
        -8.739389470005802
      ],
      [
        "グループ",
        -8.739548218078331
      ],
      [
        "積",
        -8.739967896350175
      ],
      [
        "章",
        -8.74158355104051
      ],
      [
        "左",
        -8.741655950276092
      ],
      [
        "海軍",
        -8.741849221657993
      ],
      [
        "与",
        -8.743274905834115
      ],
      [
        "es",
        -8.745973537924474
      ],
      [
        "戸",
        -8.746721615847681
      ],
      [
        "堂",
        -8.746723038261978
      ],
      [
        "検",
        -8.747495349510451
      ],
      [
        "盤",
        -8.748668498150925
      ],
      [
        "施設",
        -8.749927709189343
      ],
      [
        "を受けた",
        -8.75081933230441
      ],
      [
        "ウィ",
        -8.750976919530551
      ],
      [
        "一般",
        -8.75343810940111
      ],
      [
        "居",
        -8.75574965223056
      ],
      [
        "史",
        -8.755793435227227
      ],
      [
        "岩",
        -8.755940844274566
      ],
      [
        "非",
        -8.756113329518044
      ],
      [
        "バン",
        -8.757246395712622
      ],
      [
        "ために",
        -8.758239492593518
      ],
      [
        "葉",
        -8.758789503897614
      ],
      [
        "at",
        -8.75929644056354
      ],
      [
        "ものである",
        -8.759852756363228
      ],
      [
        "返",
        -8.760123498937512
      ],
      [
        "構造",
        -8.76020121247997
      ],
      [
        "影響",
        -8.762294500012816
      ],
      [
        "これを",
        -8.762321918142579
      ],
      [
        "フォー",
        -8.763058726220859
      ],
      [
        "める",
        -8.765360544632074
      ],
      [
        "属",
        -8.765413376930388
      ],
      [
        "生活",
        -8.766151575198615
      ],
      [
        "節",
        -8.767226273649971
      ],
      [
        "のために",
        -8.767855508348086
      ],
      [
        "材",
        -8.768204420356202
      ],
      [
        "演",
        -8.768426296933052
      ],
      [
        "問",
        -8.76875292610402
      ],
      [
        "ッシュ",
        -8.769158083364836
      ],
      [
        "独立",
        -8.770483971702495
      ],
      [
        "沢",
        -8.770761887630085
      ],
      [
        "永",
        -8.77097025472735
      ],
      [
        "トラ",
        -8.77160557035063
      ],
      [
        "将",
        -8.77178198817598
      ],
      [
        "終",
        -8.772741876545133
      ],
      [
        "港",
        -8.773192680095073
      ],
      [
        "周",
        -8.774001786366949
      ],
      [
        "一方",
        -8.774239589204296
      ],
      [
        "森",
        -8.776007405581955
      ],
      [
        "のように",
        -8.776328675801246
      ],
      [
        "御",
        -8.777914375568624
      ],
      [
        "テン",
        -8.778276896613887
      ],
      [
        "ピー",
        -8.778310023036454
      ],
      [
        "八",
        -8.780194711409676
      ],
      [
        "遺",
        -8.780215507493443
      ],
      [
        "応",
        -8.780230201898739
      ],
      [
        "売",
        -8.784600249886774
      ],
      [
        "引",
        -8.784780442902605
      ],
      [
        "へと",
        -8.7852381819124
      ],
      [
        "ニュー",
        -8.78558986151785
      ],
      [
        "志",
        -8.78561791774987
      ],
      [
        "ことで",
        -8.785785725501189
      ],
      [
        "夜",
        -8.785854046920354
      ],
      [
        "秋",
        -8.786040934571078
      ],
      [
        "要",
        -8.786275381087624
      ],
      [
        "江",
        -8.786281474210478
      ],
      [
        "担当",
        -8.78685869291084
      ],
      [
        "ーズ",
        -8.787189590277809
      ],
      [
        "翌",
        -8.787317580971445
      ],
      [
        "告",
        -8.78737668540668
      ],
      [
        "置",
        -8.788216907408213
      ],
      [
        "望",
        -8.78839245604087
      ],
      [
        "出演",
        -8.788781266162427
      ],
      [
        "右",
        -8.788941430106403
      ],
      [
        "is",
        -8.789032743655973
      ],
      [
        "短",
        -8.789415357527957
      ],
      [
        "園",
        -8.792901999603865
      ],
      [
        "かれ",
        -8.792909510797616
      ],
      [
        "路線",
        -8.794596445534085
      ],
      [
        "デビュー",
        -8.79494378473752
      ],
      [
        "帝国",
        -8.795520039281277
      ],
      [
        "とされる",
        -8.796135103312448
      ],
      [
        "国内",
        -8.796185262832989
      ],
      [
        "育",
        -8.80028680138769
      ],
      [
        "席",
        -8.800568921029086
      ],
      [
        "界",
        -8.801306302802047
      ],
      [
        "ビル",
        -8.801771209826521
      ],
      [
        "限",
        -8.801955642129375
      ],
      [
        "助",
        -8.803672370294205
      ],
      [
        "シェ",
        -8.803688005883183
      ],
      [
        "ダム",
        -8.804101458882654
      ],
      [
        "発生",
        -8.806194032855572
      ],
      [
        "2000",
        -8.80841622877403
      ],
      [
        "若",
        -8.808778515894437
      ],
      [
        "街",
        -8.808921019328112
      ],
      [
        "未",
        -8.809159062072737
      ],
      [
        "戦で",
        -8.811643964914495
      ],
      [
        "向け",
        -8.811849423899169
      ],
      [
        "かつて",
        -8.815768548549586
      ],
      [
        "者が",
        -8.815832938234399
      ],
      [
        "スタ",
        -8.821637068482765
      ],
      [
        "豊",
        -8.822521326385196
      ],
      [
        "年まで",
        -8.822805117855852
      ],
      [
        "2016",
        -8.823856829596142
      ],
      [
        "エンジン",
        -8.824252806474687
      ],
      [
        "ヴ",
        -8.8242696632064
      ],
      [
        "z",
        -8.824375867490811
      ],
      [
        "航空",
        -8.825298960328235
      ],
      [
        "ri",
        -8.826312269625747
      ],
      [
        "しか",
        -8.82659072444343
      ],
      [
        "議",
        -8.827232488991127
      ],
      [
        "委員会",
        -8.827635541897633
      ],
      [
        "伊",
        -8.827898204824926
      ],
      [
        "最高",
        -8.82897516404215
      ],
      [
        "自身",
        -8.830431351186835
      ],
      [
        "されており",
        -8.831903151798967
      ],
      [
        "キー",
        -8.832932254947455
      ],
      [
        "守",
        -8.83305226657
      ],
      [
        "ザー",
        -8.833186858039834
      ],
      [
        "者は",
        -8.83374405659638
      ],
      [
        "設置",
        -8.835307307626174
      ],
      [
        "列",
        -8.836895605323626
      ],
      [
        "ぎ",
        -8.838671954135679
      ],
      [
        "制作",
        -8.839148430563267
      ],
      [
        "スタン",
        -8.840204628285822
      ],
      [
        "トリ",
        -8.84065730691115
      ],
      [
        "令",
        -8.842600822958724
      ],
      [
        "都",
        -8.843805695087323
      ],
      [
        "設計",
        -8.844339468527684
      ],
      [
        "優",
        -8.84590798796596
      ],
      [
        "過",
        -8.847714863730314
      ],
      [
        "ウル",
        -8.847764044041707
      ],
      [
        "投",
        -8.847849632747296
      ],
      [
        "ウス",
        -8.847855355321437
      ],
      [
        "または",
        -8.847871041279266
      ],
      [
        "ではない",
        -8.848015021685617
      ],
      [
        "の大",
        -8.84972907454498
      ],
      [
        "密",
        -8.849805597122737
      ],
      [
        "管理",
        -8.851258242115316
      ],
      [
        "藩",
        -8.851619460542853
      ],
      [
        "宗",
        -8.855686893260971
      ],
      [
        "これらの",
        -8.857977074531902
      ],
      [
        "議員",
        -8.858677478224028
      ],
      [
        "搭載",
        -8.859251791378847
      ],
      [
        "全国",
        -8.859305481611507
      ],
      [
        "成功",
        -8.860543469897268
      ],
      [
        "最初の",
        -8.861531024336614
      ],
      [
        ")」",
        -8.861631677121414
      ],
      [
        "そう",
        -8.861933277243898
      ],
      [
        "雄",
        -8.862766004252016
      ],
      [
        "通常",
        -8.86441412138095
      ],
      [
        "蔵",
        -8.865795470893667
      ],
      [
        "入り",
        -8.866018859980036
      ],
      [
        "変更",
        -8.866314466749857
      ],
      [
        "想",
        -8.866918111044486
      ],
      [
        "除",
        -8.867295497186959
      ],
      [
        "実施",
        -8.867353177572078
      ],
      [
        "の一部",
        -8.868410032958762
      ],
      [
        "対応",
        -8.86882069598164
      ],
      [
        "2005",
        -8.869175863227737
      ],
      [
        "営",
        -8.86940586611051
      ],
      [
        "よりも",
        -8.870106843310989
      ],
      [
        "しない",
        -8.87048603001535
      ],
      [
        "大きく",
        -8.87076524647978
      ],
      [
        "を行った",
        -8.870973572610337
      ],
      [
        "モデル",
        -8.87209191967351
      ],
      [
        "引き",
        -8.873288988671813
      ],
      [
        "アルバム",
        -8.873896181732569
      ],
      [
        "深",
        -8.873992145056013
      ],
      [
        "人間",
        -8.874685873276835
      ],
      [
        "に対し",
        -8.874785741960993
      ],
      [
        "受け",
        -8.87518699248567
      ],
      [
        "横",
        -8.875682769040067
      ],
      [
        "運転",
        -8.878548336729912
      ],
      [
        "x",
        -8.878706841845599
      ],
      [
        "国家",
        -8.880975672148686
      ],
      [
        "企業",
        -8.881291248475346
      ],
      [
        "ふ",
        -8.88195892671749
      ],
      [
        "夏",
        -8.8823729678946
      ],
      [
        "紙",
        -8.884688207952053
      ],
      [
        "農",
        -8.885357344147453
      ],
      [
        "ような",
        -8.887308840219239
      ],
      [
        "テー",
        -8.888237700164975
      ],
      [
        "持",
        -8.888315310517592
      ],
      [
        "題",
        -8.88924990070693
      ],
      [
        "高校",
        -8.889556908487158
      ],
      [
        "病",
        -8.889595441284941
      ],
      [
        "サイ",
        -8.892778632013545
      ],
      [
        "報",
        -8.893342198646472
      ],
      [
        "st",
        -8.89376480708737
      ],
      [
        "再び",
        -8.895807896625968
      ],
      [
        "軽",
        -8.896317105422725
      ],
      [
        "覚",
        -8.89715734231387
      ],
      [
        "共",
        -8.898213957592311
      ],
      [
        "ジョ",
        -8.899684651171436
      ],
      [
        "軍の",
        -8.899910443977554
      ],
      [
        "連合",
        -8.901955903051984
      ],
      [
        "段",
        -8.902059183597473
      ],
      [
        "巻",
        -8.902617719124569
      ],
      [
        "仕",
        -8.902738697345724
      ],
      [
        "ステ",
        -8.903780095181071
      ],
      [
        "多く",
        -8.904923158975203
      ],
      [
        "ol",
        -8.905484434038211
      ],
      [
        "歩",
        -8.905680269959163
      ],
      [
        "比",
        -8.906487275552319
      ],
      [
        "ヨーロッパ",
        -8.907189520039367
      ],
      [
        "程度",
        -8.907217639452591
      ],
      [
        "飛行",
        -8.907662905669941
      ],
      [
        "大阪",
        -8.910075571352817
      ],
      [
        "mm",
        -8.911694384260953
      ],
      [
        "日には",
        -8.912774704836751
      ],
      [
        "考え",
        -8.913359542914934
      ],
      [
        "a ",
        -8.913443396164768
      ],
      [
        "彼",
        -8.914028361398314
      ],
      [
        "設定",
        -8.914215705260489
      ],
      [
        "プラ",
        -8.914869175469136
      ],
      [
        "ケー",
        -8.914925116560038
      ],
      [
        "板",
        -8.914989997104097
      ],
      [
        "頃",
        -8.91726809380009
      ],
      [
        "輪",
        -8.919040227910141
      ],
      [
        "支配",
        -8.919691755163116
      ],
      [
        "製作",
        -8.920014021317078
      ],
      [
        "トー",
        -8.920525005852177
      ],
      [
        "のうち",
        -8.921036656856389
      ],
      [
        "理由",
        -8.921448639283613
      ],
      [
        "クラ",
        -8.921548817501714
      ],
      [
        "人物",
        -8.921942477331546
      ],
      [
        "評",
        -8.922578019981966
      ],
      [
        "ローマ",
        -8.922609425631272
      ],
      [
        "妻",
        -8.922967973298103
      ],
      [
        "クラブ",
        -8.923036433715119
      ],
      [
        "彼女",
        -8.923635752879703
      ],
      [
        "帰",
        -8.924587698565787
      ],
      [
        "ファン",
        -8.924934189230495
      ],
      [
        "ヴァ",
        -8.925418030154873
      ],
      [
        "目の",
        -8.925445511816623
      ],
      [
        "道路",
        -8.926127083805449
      ],
      [
        "ra",
        -8.928503683001042
      ],
      [
        "順",
        -8.929024255580886
      ],
      [
        "y ",
        -8.929212515550851
      ],
      [
        "ワー",
        -8.930186195695649
      ],
      [
        "月には",
        -8.930198702985976
      ],
      [
        "ゆ",
        -8.93029965557751
      ],
      [
        "激",
        -8.9309657985123
      ],
      [
        "のため",
        -8.932137982720361
      ],
      [
        "主に",
        -8.932307363738781
      ],
      [
        "セン",
        -8.933789955616657
      ],
      [
        "構成",
        -8.935796483005255
      ],
      [
        "本作",
        -8.936316728712226
      ],
      [
        "以下",
        -8.937085907544448
      ],
      [
        "降",
        -8.937683876429146
      ],
      [
        "自分",
        -8.938020415716048
      ],
      [
        "第一",
        -8.938369123234045
      ],
      [
        "ヨ",
        -8.938639951968234
      ],
      [
        "全体",
        -8.939246698303547
      ],
      [
        "導入",
        -8.942392759577153
      ],
      [
        "細",
        -8.943428182040654
      ],
      [
        "難",
        -8.943753217043781
      ],
      [
        "エー",
        -8.94426877114559
      ],
      [
        "パン",
        -8.945143755047836
      ],
      [
        "味",
        -8.945780852751916
      ],
      [
        "突",
        -8.946066594742568
      ],
      [
        "指",
        -8.946705582406658
      ],
      [
        "家の",
        -8.94940325021274
      ],
      [
        "ro",
        -8.950357632108817
      ],
      [
        "ブラ",
        -8.95055543017403
      ],
      [
        "切り",
        -8.952291857724324
      ],
      [
        "跡",
        -8.952774526412004
      ],
      [
        "移籍",
        -8.953271737373223
      ],
      [
        "前の",
        -8.956294223866355
      ],
      [
        "メンバー",
        -8.956435400915439
      ],
      [
        "減",
        -8.957039046020196
      ],
      [
        "並",
        -8.958686221476054
      ],
      [
        "人気",
        -8.958855631161823
      ],
      [
        "できない",
        -8.960145726212936
      ],
      [
        "遠",
        -8.961405887426809
      ],
      [
        "キャラクター",
        -8.961884141073826
      ],
      [
        "評価",
        -8.961896741470575
      ],
      [
        "内容",
        -8.964186208969757
      ],
      [
        "ウェ",
        -8.966132872437578
      ],
      [
        "に入",
        -8.96656592882853
      ],
      [
        "能",
        -8.967046120797981
      ],
      [
        "ホーム",
        -8.968332157663722
      ],
      [
        "アメリカ合衆国",
        -8.968987644554469
      ],
      [
        "大統領",
        -8.971090894002225
      ],
      [
        "少",
        -8.971608741097363
      ],
      [
        "講",
        -8.974093166063502
      ],
      [
        "曜",
        -8.97511497901867
      ],
      [
        "銃",
        -8.976991018851898
      ],
      [
        "れば",
        -8.97717026623041
      ],
      [
        "70",
        -8.977259118000626
      ],
      [
        "80",
        -8.977594059634304
      ],
      [
        "あるいは",
        -8.977646263677475
      ],
      [
        "初の",
        -8.977688149138714
      ],
      [
        "独",
        -8.977748089917577
      ],
      [
        "ユ",
        -8.979141310928236
      ],
      [
        "などが",
        -8.980864022912945
      ],
      [
        "額",
        -8.98106788617016
      ],
      [
        "センター",
        -8.981397100121299
      ],
      [
        "名称",
        -8.981615115317311
      ],
      [
        "技",
        -8.982245055034616
      ],
      [
        "英語",
        -8.984446639601925
      ],
      [
        "庁",
        -8.9849033112652
      ],
      [
        "中の",
        -8.985268909851916
      ],
      [
        "様々な",
        -8.985307290276536
      ],
      [
        "特徴",
        -8.986034588451325
      ],
      [
        "予定",
        -8.986363365137356
      ],
      [
        "階",
        -8.986511796604102
      ],
      [
        "異なる",
        -8.987045869126854
      ],
      [
        "ライン",
        -8.98746376736771
      ],
      [
        "絶",
        -8.987594870494592
      ],
      [
        "張",
        -8.987703071161397
      ],
      [
        "などを",
        -8.98790799009934
      ],
      [
        "ジャー",
        -8.988448094937876
      ],
      [
        "証",
        -8.989691450610149
      ],
      [
        "副",
        -8.990511125115294
      ],
      [
        "こう",
        -8.99072875489519
      ],
      [
        "府",
        -8.991309086321792
      ],
      [
        "戦闘",
        -8.992713554319074
      ],
      [
        "会議",
        -8.992956959361738
      ],
      [
        "適",
        -8.994016952691767
      ],
      [
        "時期",
        -8.994603318461229
      ],
      [
        "彼の",
        -8.994989813138702
      ],
      [
        "幅",
        -8.995151317976177
      ],
      [
        "期間",
        -8.995202667548705
      ],
      [
        "アニメ",
        -8.996298164562921
      ],
      [
        "まった",
        -8.99632646192933
      ],
      [
        "当初",
        -8.997350122199599
      ],
      [
        "救",
        -8.997514583105586
      ],
      [
        "内の",
        -8.997862223286468
      ],
      [
        "学生",
        -8.999582333902994
      ],
      [
        "術",
        -9.000343719236854
      ],
      [
        "歴史",
        -9.001079407942138
      ],
      [
        "考",
        -9.001555448211471
      ],
      [
        "ウン",
        -9.00182020418529
      ],
      [
        "イタリア",
        -9.002184059644447
      ],
      [
        "逆",
        -9.003369025597745
      ],
      [
        "〜",
        -9.006440999926781
      ],
      [
        "所属",
        -9.008220987638696
      ],
      [
        "劇",
        -9.01044007722978
      ],
      [
        "科学",
        -9.01107061476466
      ],
      [
        "頼",
        -9.01149261813972
      ],
      [
        "確",
        -9.012887418513406
      ],
      [
        "編成",
        -9.013077879940598
      ],
      [
        "可",
        -9.013175600003668
      ],
      [
        "らない",
        -9.013716939434234
      ],
      [
        "像",
        -9.013752654727757
      ],
      [
        "活躍",
        -9.013875156240507
      ],
      [
        "消",
        -9.014383441987142
      ],
      [
        "著",
        -9.015131202286016
      ],
      [
        "対象",
        -9.015139396603308
      ],
      [
        "示",
        -9.015506794049353
      ],
      [
        "支援",
        -9.015525030676333
      ],
      [
        "諸",
        -9.01693344740575
      ],
      [
        "を取り",
        -9.017070431341285
      ],
      [
        "輸送",
        -9.01737191549313
      ],
      [
        "位置",
        -9.018650083453927
      ],
      [
        "具",
        -9.018755621939938
      ],
      [
        "参",
        -9.019217625370077
      ],
      [
        "服",
        -9.02021922235493
      ],
      [
        "野球",
        -9.020708910354893
      ],
      [
        "国民",
        -9.022197451768363
      ],
      [
        "枚",
        -9.022598969466694
      ],
      [
        "'",
        -9.022658529615011
      ],
      [
        "宝",
        -9.02280744550758
      ],
      [
        "になって",
        -9.02377047687312
      ],
      [
        "学者",
        -9.023930494621975
      ],
      [
        "as",
        -9.024389659288076
      ],
      [
        "陣",
        -9.025551463335344
      ],
      [
        "追",
        -9.02563335193121
      ],
      [
        "友",
        -9.026599217673944
      ],
      [
        "を含む",
        -9.02699090881929
      ],
      [
        "にかけて",
        -9.02733003479328
      ],
      [
        "作戦",
        -9.027653341020445
      ],
      [
        "FC",
        -9.02878929181854
      ],
      [
        "完成",
        -9.029390163220151
      ],
      [
        "合わせ",
        -9.029554826726011
      ],
      [
        "周辺",
        -9.031512677532572
      ],
      [
        "布",
        -9.03168606395086
      ],
      [
        "2004",
        -9.031702973734951
      ],
      [
        "~",
        -9.033347254132066
      ],
      [
        "ファー",
        -9.033766662055465
      ],
      [
        "インド",
        -9.034137322237164
      ],
      [
        "になっている",
        -9.03443952409394
      ],
      [
        "奪",
        -9.034491670177538
      ],
      [
        "池",
        -9.035305734977271
      ],
      [
        "振",
        -9.036577882997026
      ],
      [
        "2018",
        -9.036866839337272
      ],
      [
        "存",
        -9.037241785302015
      ],
      [
        "秀",
        -9.037298225255936
      ],
      [
        "方法",
        -9.03790309751378
      ],
      [
        "特別",
        -9.03971193867816
      ],
      [
        "35",
        -9.040091145969615
      ],
      [
        "連続",
        -9.040583298850905
      ],
      [
        "探",
        -9.040900958865125
      ],
      [
        "ユー",
        -9.040911909462636
      ],
      [
        " - ",
        -9.040944002046311
      ],
      [
        "マイ",
        -9.041244915467551
      ],
      [
        "においては",
        -9.04196566206169
      ],
      [
        "延",
        -9.042133234462764
      ],
      [
        "草",
        -9.042479323460936
      ],
      [
        "然",
        -9.043518845636996
      ],
      [
        "骨",
        -9.043908068840055
      ],
      [
        "介",
        -9.043963036958273
      ],
      [
        "政治",
        -9.04418414565852
      ],
      [
        "自ら",
        -9.044572573357094
      ],
      [
        "富",
        -9.0468729921952
      ],
      [
        "戻",
        -9.047628307304144
      ],
      [
        "年度",
        -9.048088292930286
      ],
      [
        "おり",
        -9.048674444155472
      ],
      [
        "遊",
        -9.049490585396724
      ],
      [
        "ディー",
        -9.049778726914065
      ],
      [
        "税",
        -9.049888345705456
      ],
      [
        "経営",
        -9.0500521243885
      ],
      [
        "セル",
        -9.050228344369488
      ],
      [
        "記念",
        -9.051282830613246
      ],
      [
        "-1",
        -9.05162037844021
      ],
      [
        "終了",
        -9.053021747503562
      ],
      [
        "からは",
        -9.053042898870862
      ],
      [
        "項",
        -9.053506039541176
      ],
      [
        "読",
        -9.054470221031522
      ],
      [
        "護",
        -9.05564017931782
      ],
      [
        "スク",
        -9.057022646969225
      ],
      [
        "レース",
        -9.057620578761764
      ],
      [
        "らず",
        -9.059603743780848
      ],
      [
        "念",
        -9.059959063270275
      ],
      [
        "ほぼ",
        -9.060720147037063
      ],
      [
        "ざ",
        -9.061926297789537
      ],
      [
        "時代の",
        -9.062765927833546
      ],
      [
        "値",
        -9.062892393934916
      ],
      [
        "徳",
        -9.063459846884252
      ],
      [
        "公開",
        -9.06360174245475
      ],
      [
        "タル",
        -9.06397800004617
      ],
      [
        "倒",
        -9.064253627501143
      ],
      [
        "割",
        -9.064320555791396
      ],
      [
        "自動車",
        -9.067822578889164
      ],
      [
        "郎",
        -9.068449493103694
      ],
      [
        "そのため",
        -9.06897669318829
      ],
      [
        "状況",
        -9.069005677195562
      ],
      [
        "ブリ",
        -9.069407417576496
      ],
      [
        "ベン",
        -9.070293322915106
      ],
      [
        "ジャン",
        -9.070945519068598
      ],
      [
        "ヴェ",
        -9.072086033029882
      ],
      [
        "新聞",
        -9.072199451698156
      ],
      [
        "交通",
        -9.072681639718258
      ],
      [
        "果",
        -9.073223420156376
      ],
      [
        "立て",
        -9.07322845391842
      ],
      [
        "であったが",
        -9.073363669131536
      ],
      [
        "ダン",
        -9.073593809133168
      ],
      [
        "el",
        -9.07378756495957
      ],
      [
        "とき",
        -9.07423846890788
      ],
      [
        "日 ",
        -9.075132969935796
      ],
      [
        "ゾ",
        -9.075267672042784
      ],
      [
        "環境",
        -9.075635583422596
      ],
      [
        "毛",
        -9.075836853481158
      ],
      [
        "中心",
        -9.075968148828991
      ],
      [
        "陸軍",
        -9.076282904677964
      ],
      [
        "発見",
        -9.077147327781809
      ],
      [
        "興",
        -9.07768885109006
      ],
      [
        "賀",
        -9.077817481437092
      ],
      [
        "以来",
        -9.077828387282873
      ],
      [
        "ようになった",
        -9.078312567692231
      ],
      [
        "なら",
        -9.079466041010926
      ],
      [
        "打ち",
        -9.079614185087516
      ],
      [
        "日から",
        -9.07968851304108
      ],
      [
        "内に",
        -9.079832473128643
      ],
      [
        "害",
        -9.080695461778358
      ],
      [
        "カード",
        -9.08572414958177
      ],
      [
        "500",
        -9.086074231376656
      ],
      [
        "郷",
        -9.086160218301556
      ],
      [
        "廃",
        -9.08668398808619
      ],
      [
        "鳥",
        -9.087017388422858
      ],
      [
        "早",
        -9.087496569032014
      ],
      [
        "典",
        -9.088824359626974
      ],
      [
        "チャー",
        -9.089867799681082
      ],
      [
        "立ち",
        -9.09107996998944
      ],
      [
        "変化",
        -9.091108056108007
      ],
      [
        "行動",
        -9.0923388336862
      ],
      [
        "サービス",
        -9.092467395215223
      ],
      [
        "プレ",
        -9.092559672792392
      ],
      [
        "之",
        -9.093389779392345
      ],
      [
        "したもの",
        -9.094267970532147
      ],
      [
        "京都",
        -9.094292053848426
      ],
      [
        "坂",
        -9.094317156261496
      ],
      [
        "シア",
        -9.09449358840123
      ],
      [
        "するために",
        -9.095431577162778
      ],
      [
        "意味",
        -9.095651637149349
      ],
      [
        "岸",
        -9.095894716586912
      ],
      [
        "トゥ",
        -9.096019122363003
      ],
      [
        "発展",
        -9.097251031835471
      ],
      [
        "羽",
        -9.097714214345606
      ],
      [
        "休",
        -9.09814827153888
      ],
      [
        "ショ",
        -9.099045025032954
      ],
      [
        "新しい",
        -9.099269507220349
      ],
      [
        "装置",
        -9.099663555378497
      ],
      [
        "出版",
        -9.099933302709244
      ],
      [
        "生まれ",
        -9.10100817371832
      ],
      [
        "展開",
        -9.101784984273449
      ],
      [
        "酸",
        -9.102285047522033
      ],
      [
        "準",
        -9.102524470814616
      ],
      [
        "連邦",
        -9.103342850034242
      ],
      [
        "天皇",
        -9.103380193230237
      ],
      [
        "Z",
        -9.10399382149392
      ],
      [
        "ことは",
        -9.104404127576633
      ],
      [
        "訪",
        -9.105556167946386
      ],
      [
        "ッツ",
        -9.105981419204277
      ],
      [
        "出した",
        -9.10649547050334
      ],
      [
        "デザイン",
        -9.107230478815678
      ],
      [
        "宇宙",
        -9.107394458432632
      ],
      [
        "寄",
        -9.1074447238263
      ],
      [
        "文字",
        -9.107583760768565
      ],
      [
        "流れ",
        -9.107661557528978
      ],
      [
        "制度",
        -9.108185419064103
      ],
      [
        "まま",
        -9.108654966430292
      ],
      [
        "の戦い",
        -9.11199203951999
      ],
      [
        "トロ",
        -9.112569519078024
      ],
      [
        "になり",
        -9.112709313456548
      ],
      [
        "出し",
        -9.113565487669517
      ],
      [
        "リスト",
        -9.114030977317157
      ],
      [
        "支持",
        -9.114197710334278
      ],
      [
        "銀",
        -9.114244303714717
      ],
      [
        "そ",
        -9.115316139735247
      ],
      [
        "警察",
        -9.1159073006523
      ],
      [
        "待",
        -9.116496219173484
      ],
      [
        "乗り",
        -9.11659683292494
      ],
      [
        "移動",
        -9.116870312666398
      ],
      [
        "協会",
        -9.117429825814067
      ],
      [
        "ダイ",
        -9.119293300797278
      ],
      [
        "複",
        -9.119355816791067
      ],
      [
        "フォ",
        -9.121106229054146
      ],
      [
        "am",
        -9.12117462502317
      ],
      [
        ". ",
        -9.1222205249771
      ],
      [
        "補",
        -9.122781635667453
      ],
      [
        "の一つ",
        -9.122963475255789
      ],
      [
        "聞",
        -9.123271136312743
      ],
      [
        "人々",
        -9.124214633877806
      ],
      [
        "能力",
        -9.124319888943711
      ],
      [
        "習",
        -9.125401456237464
      ],
      [
        "et",
        -9.12548654650768
      ],
      [
        "収録",
        -9.12569390591398
      ],
      [
        "超",
        -9.125724128239188
      ],
      [
        "てきた",
        -9.12613537084373
      ],
      [
        "としての",
        -9.127224595380032
      ],
      [
        "離",
        -9.127667744745091
      ],
      [
        "よく",
        -9.128080980981215
      ],
      [
        "ナル",
        -9.128120566963966
      ],
      [
        "メン",
        -9.129089384894511
      ],
      [
        "樹",
        -9.129348490346253
      ],
      [
        "為",
        -9.129357017116778
      ],
      [
        "強い",
        -9.130067912905831
      ],
      [
        "肉",
        -9.130110862354336
      ],
      [
        "ナン",
        -9.13021514401114
      ],
      [
        "指揮",
        -9.1305988976813
      ],
      [
        "報告",
        -9.131652880866293
      ],
      [
        "上で",
        -9.131872721820653
      ],
      [
        "ジー",
        -9.134033325038573
      ],
      [
        "非常に",
        -9.135320850139388
      ],
      [
        "没",
        -9.136397680785183
      ],
      [
        "湖",
        -9.137031880879814
      ],
      [
        "団体",
        -9.137427178566227
      ],
      [
        "共同",
        -9.13875298767436
      ],
      [
        "などで",
        -9.140425083060329
      ],
      [
        "認",
        -9.142474629617077
      ],
      [
        "復",
        -9.142531404629862
      ],
      [
        "症",
        -9.142543837763776
      ],
      [
        "!",
        -9.14255072913802
      ],
      [
        "ュ",
        -9.142559554657694
      ],
      [
        "ッグ",
        -9.142736997973037
      ],
      [
        "反対",
        -9.143023702417567
      ],
      [
        "が多い",
        -9.143873169224458
      ],
      [
        "2012",
        -9.143904897372757
      ],
      [
        "ゴール",
        -9.14414875191411
      ],
      [
        "六",
        -9.144236522994188
      ],
      [
        "タイトル",
        -9.144567589674162
      ],
      [
        "結婚",
        -9.145958048187422
      ],
      [
        "距離",
        -9.146968467309916
      ],
      [
        "殿",
        -9.148651913226931
      ],
      [
        "自然",
        -9.149007249142446
      ],
      [
        "運営",
        -9.14963066783618
      ],
      [
        "撮影",
        -9.150691160619488
      ],
      [
        "核",
        -9.151696725024657
      ],
      [
        "ミン",
        -9.1520414995746
      ],
      [
        "運行",
        -9.152763335879726
      ],
      [
        "上の",
        -9.153726903658557
      ],
      [
        "スペイン",
        -9.154044979727695
      ],
      [
        "湾",
        -9.155068542008388
      ],
      [
        "乱",
        -9.156550688947458
      ],
      [
        "子供",
        -9.157697885425575
      ],
      [
        "誌",
        -9.157797506968969
      ],
      [
        "政権",
        -9.15801329786006
      ],
      [
        "するため",
        -9.15828657801792
      ],
      [
        "以上の",
        -9.158628053897068
      ],
      [
        "えて",
        -9.159406903743676
      ],
      [
        "卒業",
        -9.160386072966103
      ],
      [
        " of ",
        -9.16101382237803
      ],
      [
        "ur",
        -9.162272343439028
      ],
      [
        "負",
        -9.162280953471264
      ],
      [
        "最終",
        -9.162844475948775
      ],
      [
        "専門",
        -9.162985197775074
      ],
      [
        "片",
        -9.163489435092702
      ],
      [
        "の一",
        -9.1645769933702
      ],
      [
        "巡",
        -9.164586356634196
      ],
      [
        "廃止",
        -9.164913231320645
      ],
      [
        "規模",
        -9.165636887306013
      ],
      [
        "形で",
        -9.165938375802453
      ],
      [
        "だと",
        -9.16603728504513
      ],
      [
        "出身",
        -9.167349053240493
      ],
      [
        "判",
        -9.16742652934777
      ],
      [
        "内で",
        -9.167515466142024
      ],
      [
        "射",
        -9.168214937783768
      ],
      [
        "姿",
        -9.168414909363191
      ],
      [
        "を経て",
        -9.168626985750077
      ],
      [
        "のある",
        -9.168850110179276
      ],
      [
        "un",
        -9.169251877557024
      ],
      [
        "背",
        -9.170579203728044
      ],
      [
        "したこと",
        -9.170943689468023
      ],
      [
        "。18",
        -9.172145470597652
      ],
      [
        "データ",
        -9.17350517305057
      ],
      [
        "2003",
        -9.17401533873887
      ],
      [
        "始",
        -9.17417006267675
      ],
      [
        "疑",
        -9.175457571323358
      ],
      [
        "捕",
        -9.17569746596252
      ],
      [
        "栄",
        -9.176221208355129
      ],
      [
        "批判",
        -9.177365568043747
      ],
      [
        "形式",
        -9.177459115888013
      ],
      [
        "ぼ",
        -9.177853342348754
      ],
      [
        "住民",
        -9.17828396621386
      ],
      [
        "持ち",
        -9.178697606055552
      ],
      [
        "欠",
        -9.179351264642897
      ],
      [
        "発表",
        -9.181091499762504
      ],
      [
        "が行われ",
        -9.18312245575014
      ],
      [
        "艦隊",
        -9.183515711721194
      ],
      [
        "ウム",
        -9.184144862012424
      ],
      [
        "表現",
        -9.185364162036594
      ],
      [
        "精",
        -9.185855574950688
      ],
      [
        "にあった",
        -9.18603222531261
      ],
      [
        "間の",
        -9.18626270281607
      ],
      [
        "モー",
        -9.186290209580678
      ],
      [
        "可能",
        -9.187562683771478
      ],
      [
        "まり",
        -9.18757950189558
      ],
      [
        "忠",
        -9.187711172016748
      ],
      [
        "la",
        -9.187933497263671
      ],
      [
        "創",
        -9.187976176683712
      ],
      [
        "闘",
        -9.188550439341537
      ],
      [
        "クロ",
        -9.190466716317763
      ],
      [
        "漫画",
        -9.191085331643803
      ],
      [
        "皇",
        -9.191818409761073
      ],
      [
        "築",
        -9.192516665670714
      ],
      [
        "兼",
        -9.193170469880627
      ],
      [
        "整備",
        -9.19320536984923
      ],
      [
        "&",
        -9.193311750234049
      ],
      [
        "プレー",
        -9.193373015492329
      ],
      [
        "国の",
        -9.194155707434687
      ],
      [
        "とし",
        -9.194198592967124
      ],
      [
        "関連",
        -9.194359196525308
      ],
      [
        "便",
        -9.19510088606186
      ],
      [
        "せず",
        -9.195132171884042
      ],
      [
        "宿",
        -9.195420199562182
      ],
      [
        "これら",
        -9.19561838026816
      ],
      [
        "景",
        -9.19586032302137
      ],
      [
        "まる",
        -9.195862200870476
      ],
      [
        "言葉",
        -9.196108347826604
      ],
      [
        "工場",
        -9.196157771363032
      ],
      [
        "バンド",
        -9.19617992397266
      ],
      [
        "滅",
        -9.196331450321765
      ],
      [
        "時点で",
        -9.197227159543724
      ],
      [
        "としている",
        -9.19834086174791
      ],
      [
        "近く",
        -9.198719478757043
      ],
      [
        "ソー",
        -9.199899827579818
      ],
      [
        "にとって",
        -9.200105921214158
      ],
      [
        "人口",
        -9.201223897739974
      ],
      [
        "被",
        -9.201248377861331
      ],
      [
        "銀行",
        -9.20126658338939
      ],
      [
        "給",
        -9.201365210023292
      ],
      [
        "盛",
        -9.205384998146618
      ],
      [
        "採",
        -9.206321015445525
      ],
      [
        "アラ",
        -9.206482875783362
      ],
      [
        "ニューヨーク",
        -9.2071834687992
      ],
      [
        "あり",
        -9.207338144315155
      ],
      [
        "成立",
        -9.207604593701411
      ],
      [
        "電気",
        -9.209080232488688
      ],
      [
        "込み",
        -9.209613252727868
      ],
      [
        "一部",
        -9.209733710809916
      ],
      [
        "1990",
        -9.210279461828549
      ],
      [
        "組み",
        -9.211294671189206
      ],
      [
        "32",
        -9.211794997253971
      ],
      [
        "翼",
        -9.212858321582948
      ],
      [
        "甲",
        -9.213196744631624
      ],
      [
        "描",
        -9.213901359856342
      ],
      [
        "産業",
        -9.214149601802315
      ],
      [
        "相手",
        -9.214847308232658
      ],
      [
        "ライブ",
        -9.215314992970985
      ],
      [
        "200",
        -9.21726706235807
      ],
      [
        "il",
        -9.218128482559068
      ],
      [
        "折",
        -9.21856570789165
      ],
      [
        "建築",
        -9.218731998854636
      ],
      [
        "第二",
        -9.21978408475992
      ],
      [
        "南部",
        -9.220260742355569
      ],
      [
        "大正",
        -9.220633259287004
      ],
      [
        "ラム",
        -9.221612446197003
      ],
      [
        "2014",
        -9.221853471865082
      ],
      [
        "ネー",
        -9.222089344575991
      ],
      [
        "こともある",
        -9.222293196549966
      ],
      [
        "の間に",
        -9.22237508225376
      ],
      [
        "候補",
        -9.22249386250052
      ],
      [
        "百",
        -9.223759464206855
      ],
      [
        "一方で",
        -9.223813810381486
      ],
      [
        "略",
        -9.22390563282296
      ],
      [
        "人は",
        -9.225935444693055
      ],
      [
        "聴",
        -9.22638478253118
      ],
      [
        "仮",
        -9.22755379642547
      ],
      [
        "固",
        -9.228673828339256
      ],
      [
        "はこの",
        -9.228822621849137
      ],
      [
        "拡大",
        -9.228847255881757
      ],
      [
        "舞台",
        -9.22937532255628
      ],
      [
        "願",
        -9.23128917519574
      ],
      [
        "188",
        -9.231307101890122
      ],
      [
        "方式",
        -9.231692954471162
      ],
      [
        "出す",
        -9.2317507140846
      ],
      [
        "争",
        -9.232453016630616
      ],
      [
        "行われた",
        -9.232559316668777
      ],
      [
        "似",
        -9.233070550749757
      ],
      [
        "メートル",
        -9.233394710836668
      ],
      [
        "成績",
        -9.234423971784526
      ],
      [
        "散",
        -9.235480407090414
      ],
      [
        "裏",
        -9.235996537288708
      ],
      [
        "2013",
        -9.236454715195835
      ],
      [
        "温",
        -9.236995300336243
      ],
      [
        "と同じ",
        -9.237425254897556
      ],
      [
        "al ",
        -9.238670049268704
      ],
      [
        "上に",
        -9.238852388776415
      ],
      [
        "苦",
        -9.238912959910742
      ],
      [
        "保護",
        -9.23937286729224
      ],
      [
        "公園",
        -9.23951186083762
      ],
      [
        "を受けて",
        -9.23952739849367
      ],
      [
        "ドラマ",
        -9.240001931276735
      ],
      [
        "最大",
        -9.240261786818774
      ],
      [
        "t ",
        -9.24093258070084
      ],
      [
        "試験",
        -9.241304198247995
      ],
      [
        "刻",
        -9.242060411223822
      ],
      [
        "政策",
        -9.242099896209448
      ],
      [
        "フル",
        -9.243159500358372
      ],
      [
        "活",
        -9.24334717544254
      ],
      [
        "倉",
        -9.244243515640203
      ],
      [
        "巨",
        -9.24439963700433
      ],
      [
        "王国",
        -9.24515309623889
      ],
      [
        "によれば",
        -9.245260955554592
      ],
      [
        "ホー",
        -9.245931554309784
      ],
      [
        "アジア",
        -9.246728879050986
      ],
      [
        "爆",
        -9.246833904578468
      ],
      [
        "就",
        -9.248880060978298
      ],
      [
        "陽",
        -9.249785268874556
      ],
      [
        "動物",
        -9.249855246277344
      ],
      [
        "協",
        -9.25104812079062
      ],
      [
        "工業",
        -9.25224207179096
      ],
      [
        "経験",
        -9.252408441784942
      ],
      [
        "トップ",
        -9.252662744308406
      ],
      [
        "教授",
        -9.252714224608631
      ],
      [
        "までの",
        -9.253349470427954
      ],
      [
        "を与え",
        -9.253735562613688
      ],
      [
        "納",
        -9.254262055139309
      ],
      [
        "2002",
        -9.254582961377023
      ],
      [
        "提供",
        -9.255495913686612
      ],
      [
        "していたが",
        -9.255517469164102
      ],
      [
        "っており",
        -9.256240724595198
      ],
      [
        "芸",
        -9.256379204935524
      ],
      [
        "スポーツ",
        -9.2574600984286
      ],
      [
        "うち",
        -9.25826880247328
      ],
      [
        "物語",
        -9.25908727134351
      ],
      [
        "が多く",
        -9.259249584943955
      ],
      [
        "縮",
        -9.26081587433707
      ],
      [
        "絵",
        -9.260925429984216
      ],
      [
        "もあった",
        -9.26228536099602
      ],
      [
        "冷",
        -9.262290745080362
      ],
      [
        "選手権",
        -9.2624074834797
      ],
      [
        "紀",
        -9.262830645181328
      ],
      [
        "を行い",
        -9.265351974643838
      ],
      [
        "効果",
        -9.265461516874964
      ],
      [
        "us",
        -9.265941108700824
      ],
      [
        "罪",
        -9.266088880434909
      ],
      [
        "ヴォ",
        -9.267035585537668
      ],
      [
        "設立",
        -9.2675822292859
      ],
      [
        "幕",
        -9.267876982393007
      ],
      [
        "予",
        -9.269033584054378
      ],
      [
        "庫",
        -9.269202196788004
      ],
      [
        "土地",
        -9.2695767671907
      ],
      [
        "老",
        -9.269697887368451
      ],
      [
        "警",
        -9.26987004797975
      ],
      [
        "直接",
        -9.271844474479185
      ],
      [
        "軍は",
        -9.271859210066646
      ],
      [
        "等の",
        -9.27242986563109
      ],
      [
        "したため",
        -9.272543934662464
      ],
      [
        "ワイ",
        -9.27272277814276
      ],
      [
        "当初は",
        -9.273035434326795
      ],
      [
        "衆",
        -9.275001470484758
      ],
      [
        "シングル",
        -9.275286165807795
      ],
      [
        "2015",
        -9.27544174080007
      ],
      [
        "違",
        -9.276162455104664
      ],
      [
        "もあり",
        -9.276782468754524
      ],
      [
        "里",
        -9.277198753374153
      ],
      [
        "付近",
        -9.278145658510905
      ],
      [
        "情",
        -9.279181312050271
      ],
      [
        "脱",
        -9.280389405218076
      ],
      [
        "得点",
        -9.280714350606464
      ],
      [
        "ation",
        -9.28215554812723
      ],
      [
        "費",
        -9.282333317848034
      ],
      [
        "復帰",
        -9.283558433938346
      ],
      [
        "、18",
        -9.283673305585562
      ],
      [
        "づ",
        -9.283842501593377
      ],
      [
        "壁",
        -9.284717585787252
      ],
      [
        "辺",
        -9.285569552944178
      ],
      [
        "ペン",
        -9.28681486218198
      ],
      [
        "されること",
        -9.287362303414469
      ],
      [
        "設",
        -9.287839381071242
      ],
      [
        "全て",
        -9.287933830465295
      ],
      [
        "それを",
        -9.288356023219295
      ],
      [
        "リリース",
        -9.28892148018789
      ],
      [
        "さん",
        -9.28935952380185
      ],
      [
        "われた",
        -9.290071010814382
      ],
      [
        "漢",
        -9.290384312899167
      ],
      [
        "187",
        -9.291860926361734
      ],
      [
        "いている",
        -9.291865155744306
      ],
      [
        "重要な",
        -9.293101617264409
      ],
      [
        "たい",
        -9.293518043698434
      ],
      [
        "主張",
        -9.294085364691286
      ],
      [
        "細胞",
        -9.294203422185529
      ],
      [
        "公式",
        -9.294208690249135
      ],
      [
        "静",
        -9.294831452022905
      ],
      [
        "テル",
        -9.295188856093256
      ],
      [
        "増加",
        -9.295632966244767
      ],
      [
        "招",
        -9.295731084407644
      ],
      [
        "旅",
        -9.296418811800097
      ],
      [
        "飛",
        -9.296445234255568
      ],
      [
        "2001",
        -9.29685568141909
      ],
      [
        "登録",
        -9.29694708013892
      ],
      [
        "隻",
        -9.297964102650926
      ],
      [
        "シャー",
        -9.298725137598757
      ],
      [
        "1980",
        -9.2989301582852
      ],
      [
        "ac",
        -9.30016607753301
      ],
      [
        "部の",
        -9.300329825218698
      ],
      [
        "条件",
        -9.301215380315227
      ],
      [
        "縁",
        -9.30205127502966
      ],
      [
        "軍事",
        -9.302205228101366
      ],
      [
        "去",
        -9.304103786258649
      ],
      [
        "イー",
        -9.30451418665141
      ],
      [
        "フリー",
        -9.304794715506407
      ],
      [
        "余",
        -9.305048653863572
      ],
      [
        "浦",
        -9.306115679645632
      ],
      [
        "だったが",
        -9.30776603483009
      ],
      [
        "孫",
        -9.308609841435535
      ],
      [
        "数は",
        -9.30956305023726
      ],
      [
        "表示",
        -9.309792776105592
      ],
      [
        "選出",
        -9.310344724710644
      ],
      [
        "セント",
        -9.310494193369331
      ],
      [
        "礼",
        -9.310792381984164
      ],
      [
        "ロック",
        -9.312059372536842
      ],
      [
        "リオ",
        -9.31235082400466
      ],
      [
        "玉",
        -9.31238267305721
      ],
      [
        "華",
        -9.31250205464548
      ],
      [
        "酒",
        -9.312939884350223
      ],
      [
        "名は",
        -9.314945462103177
      ],
      [
        "市の",
        -9.315306281730503
      ],
      [
        "発行",
        -9.315611409653128
      ],
      [
        "アップ",
        -9.31611651437429
      ],
      [
        "ドゥ",
        -9.316444606254068
      ],
      [
        "演奏",
        -9.316730431371289
      ],
      [
        "混",
        -9.316783389391068
      ],
      [
        "はその",
        -9.317376422377928
      ],
      [
        "以後",
        -9.31738837384542
      ],
      [
        "言語",
        -9.317599701404022
      ],
      [
        "キン",
        -9.317938819018693
      ],
      [
        "幼",
        -9.318809334655835
      ],
      [
        "彼ら",
        -9.31884378935604
      ],
      [
        "純",
        -9.31896953165556
      ],
      [
        "+",
        -9.319009584525348
      ],
      [
        "名の",
        -9.319499516766529
      ],
      [
        "博",
        -9.321287821398496
      ],
      [
        "ゃ",
        -9.32161468341332
      ],
      [
        "込まれ",
        -9.32205586586186
      ],
      [
        "基本",
        -9.322371556438174
      ],
      [
        "方向",
        -9.322980600837338
      ],
      [
        "”",
        -9.323666637725516
      ],
      [
        "皮",
        -9.324512048403774
      ],
      [
        "圏",
        -9.324753725644964
      ],
      [
        "まれ",
        -9.325095244622922
      ],
      [
        "掛け",
        -9.32645995857532
      ],
      [
        "ぶり",
        -9.326493841726062
      ],
      [
        "によると",
        -9.326684996122678
      ],
      [
        "協力",
        -9.3270520553457
      ],
      [
        "個人",
        -9.327369420180998
      ],
      [
        "ガス",
        -9.327580428214608
      ],
      [
        "襲",
        -9.32802864796489
      ],
      [
        "イル",
        -9.32808990808
      ],
      [
        "例えば",
        -9.330126907343246
      ],
      [
        "空港",
        -9.330923006456969
      ],
      [
        "魔",
        -9.33178533554891
      ],
      [
        "月から",
        -9.332887136635945
      ],
      [
        "スーパー",
        -9.33311094303509
      ],
      [
        "朝鮮",
        -9.333307033114403
      ],
      [
        "臣",
        -9.33357217134082
      ],
      [
        "方面",
        -9.333907831727606
      ],
      [
        "種類",
        -9.33498477100014
      ],
      [
        "FA",
        -9.335542826697845
      ],
      [
        "ボル",
        -9.33585794964025
      ],
      [
        "ベー",
        -9.335890342915755
      ],
      [
        "ことになる",
        -9.33711252578122
      ],
      [
        "ゲン",
        -9.338910042494364
      ],
      [
        "小説",
        -9.339028545993791
      ],
      [
        "砂",
        -9.339525822275016
      ],
      [
        "つけ",
        -9.341374340326768
      ],
      [
        "将軍",
        -9.34170929148758
      ],
      [
        "資",
        -9.341823786693425
      ],
      [
        "ラジオ",
        -9.342264727534754
      ],
      [
        "運用",
        -9.342652222457149
      ],
      [
        "抜",
        -9.342675710359996
      ],
      [
        "注",
        -9.34280099698202
      ],
      [
        "サイト",
        -9.345422854638906
      ],
      [
        "45",
        -9.346087983845983
      ],
      [
        "であるが",
        -9.34633554989586
      ],
      [
        "ir",
        -9.346407129486629
      ],
      [
        "するなど",
        -9.348606278693396
      ],
      [
        "枠",
        -9.34876727302044
      ],
      [
        "韓国",
        -9.34886258705063
      ],
      [
        "弱",
        -9.349303842291944
      ],
      [
        "ミー",
        -9.350051062182494
      ],
      [
        "製品",
        -9.350262738141804
      ],
      [
        "企画",
        -9.351280468666092
      ],
      [
        "高速",
        -9.353700101906243
      ],
      [
        "時の",
        -9.353890400922364
      ],
      [
        "植",
        -9.354183171201049
      ],
      [
        "違い",
        -9.355038379059476
      ],
      [
        "作曲",
        -9.357748338367376
      ],
      [
        "リック",
        -9.35777255684463
      ],
      [
        "ロス",
        -9.358603252163588
      ],
      [
        "通信",
        -9.358827099395029
      ],
      [
        "つか",
        -9.359071891348243
      ],
      [
        "分け",
        -9.359784547469769
      ],
      [
        "決勝",
        -9.360385735783876
      ],
      [
        "ネット",
        -9.361061405579411
      ],
      [
        "を務めた",
        -9.361218039662774
      ],
      [
        "浜",
        -9.361961465754955
      ],
      [
        "ます",
        -9.362139032225532
      ],
      [
        "装備",
        -9.362814362354973
      ],
      [
        "程",
        -9.36359142584773
      ],
      [
        "対戦",
        -9.36369012602645
      ],
      [
        "条約",
        -9.364639815799434
      ],
      [
        "標",
        -9.365085088142424
      ],
      [
        "帝",
        -9.365860885513175
      ],
      [
        "傷",
        -9.366807606361087
      ],
      [
        "継",
        -9.367106824112058
      ],
      [
        "液",
        -9.36738427816165
      ],
      [
        "勢力",
        -9.36768069350788
      ],
      [
        "専",
        -9.367964110749488
      ],
      [
        "現代",
        -9.36878505068445
      ],
      [
        "メイ",
        -9.369445223501094
      ],
      [
        "NA",
        -9.369686804742097
      ],
      [
        "七",
        -9.370668699076935
      ],
      [
        "Q",
        -9.37071087715277
      ],
      [
        "事故",
        -9.370961718519672
      ],
      [
        "労働",
        -9.371255199455112
      ],
      [
        "ベース",
        -9.372844882732355
      ],
      [
        "倍",
        -9.37307569318661
      ],
      [
        "初期",
        -9.373386392159992
      ],
      [
        "地球",
        -9.373395852313685
      ],
      [
        "雑",
        -9.373943094054034
      ],
      [
        "1970",
        -9.374505756781046
      ],
      [
        "戦後",
        -9.376267589056528
      ],
      [
        "西部",
        -9.37633672786727
      ],
      [
        "後は",
        -9.37675671318801
      ],
      [
        "革命",
        -9.37684904336061
      ],
      [
        "券",
        -9.377524853067571
      ],
      [
        "裁",
        -9.377549170367011
      ],
      [
        "現在は",
        -9.378563298898351
      ],
      [
        "併",
        -9.379258443612336
      ],
      [
        "地元",
        -9.379343780854049
      ],
      [
        "弁",
        -9.379650447324032
      ],
      [
        "財",
        -9.380065094763658
      ],
      [
        "房",
        -9.380331633705866
      ],
      [
        "舎",
        -9.380477883619571
      ],
      [
        "週",
        -9.381133846271954
      ],
      [
        "価",
        -9.381279005389905
      ],
      [
        "季",
        -9.383103608698873
      ],
      [
        "焼",
        -9.383134891201502
      ],
      [
        "が行われた",
        -9.383462372698544
      ],
      [
        "名を",
        -9.38557569761783
      ],
      [
        "行われ",
        -9.3865097094781
      ],
      [
        "少年",
        -9.388305135439538
      ],
      [
        "市民",
        -9.388459825919565
      ],
      [
        "竹",
        -9.389014322983009
      ],
      [
        "フラン",
        -9.390035977115744
      ],
      [
        "300",
        -9.390365551098483
      ],
      [
        "配置",
        -9.39089864446934
      ],
      [
        "営業",
        -9.391721813809632
      ],
      [
        "表記",
        -9.392534172200843
      ],
      [
        "替え",
        -9.392990384361893
      ],
      [
        "規",
        -9.393747775247103
      ],
      [
        "写真",
        -9.394668701242589
      ],
      [
        "塚",
        -9.395089832880108
      ],
      [
        "工事",
        -9.395095098881988
      ],
      [
        "掲載",
        -9.39538008972906
      ],
      [
        "閉",
        -9.395572816429237
      ],
      [
        "プレイ",
        -9.396051486005598
      ],
      [
        "イベント",
        -9.397613274890254
      ],
      [
        "ファイ",
        -9.397877587002435
      ],
      [
        "始めた",
        -9.39833941896451
      ],
      [
        "ロード",
        -9.398542913429122
      ],
      [
        "ティー",
        -9.399702250942989
      ],
      [
        "自身の",
        -9.400042260467131
      ],
      [
        "挙",
        -9.401347907950138
      ],
      [
        "以外の",
        -9.401473073105656
      ],
      [
        "に伴い",
        -9.40314919604513
      ],
      [
        "仕事",
        -9.403648421599067
      ],
      [
        "186",
        -9.40444718054333
      ],
      [
        "秒",
        -9.404600066099484
      ],
      [
        "北部",
        -9.404666432296285
      ],
      [
        "側の",
        -9.40494164996345
      ],
      [
        "炭",
        -9.405123797698934
      ],
      [
        "劇場",
        -9.405307355540817
      ],
      [
        "キング",
        -9.40533078036876
      ],
      [
        "48",
        -9.405370611363567
      ],
      [
        "飾",
        -9.405473104546662
      ],
      [
        "児",
        -9.406281823002844
      ],
      [
        "破壊",
        -9.40714313460623
      ],
      [
        "最後の",
        -9.407333572912249
      ],
      [
        "神社",
        -9.408046951037184
      ],
      [
        "を中心に",
        -9.408472802840722
      ],
      [
        "ピン",
        -9.408793201185247
      ],
      [
        "塩",
        -9.409630477826363
      ],
      [
        "はない",
        -9.409972475490072
      ],
      [
        "書き",
        -9.411302122331898
      ],
      [
        "行為",
        -9.413441649772544
      ],
      [
        "区間",
        -9.41371079677943
      ],
      [
        "ホール",
        -9.4142641059749
      ],
      [
        "息子",
        -9.415335060071524
      ],
      [
        "登",
        -9.415648895060176
      ],
      [
        "指摘",
        -9.41681775689412
      ],
      [
        "派遣",
        -9.416842746423118
      ],
      [
        "そこで",
        -9.417338020087197
      ],
      [
        "瀬",
        -9.417643729289418
      ],
      [
        "含まれ",
        -9.418114676122409
      ],
      [
        "女子",
        -9.418225782207674
      ],
      [
        "文学",
        -9.418305893318276
      ],
      [
        "詩",
        -9.418307035230317
      ],
      [
        "フレ",
        -9.418388807349068
      ],
      [
        "弟",
        -9.41948875912076
      ],
      [
        "自分の",
        -9.419874144922192
      ],
      [
        "ワン",
        -9.420165490113936
      ],
      [
        "成長",
        -9.420553424382431
      ],
      [
        "祖",
        -9.422386872135856
      ],
      [
        "幸",
        -9.423584911498503
      ],
      [
        "ブルク",
        -9.423919109070289
      ],
      [
        "ビン",
        -9.425058305013202
      ],
      [
        "架",
        -9.425498915465392
      ],
      [
        "スキー",
        -9.425638646169014
      ],
      [
        "濃",
        -9.425766277274308
      ],
      [
        "クラス",
        -9.426926553248808
      ],
      [
        "貨",
        -9.427229896891909
      ],
      [
        "de",
        -9.427266217817232
      ],
      [
        "騎",
        -9.427546626439351
      ],
      [
        "追加",
        -9.4281110012822
      ],
      [
        "隣",
        -9.42868181128284
      ],
      [
        "ゅ",
        -9.428801384158607
      ],
      [
        "li",
        -9.42963254760005
      ],
      [
        "あった",
        -9.4302033737275
      ],
      [
        "ブー",
        -9.430314893365347
      ],
      [
        "線の",
        -9.430381115220955
      ],
      [
        "市場",
        -9.430476583949137
      ],
      [
        "ad",
        -9.430957787030485
      ],
      [
        "パリ",
        -9.431375083409783
      ],
      [
        "旗",
        -9.432294211746813
      ],
      [
        "説明",
        -9.432590125397178
      ],
      [
        "香",
        -9.433171499439604
      ],
      [
        "喜",
        -9.434135088703153
      ],
      [
        "進出",
        -9.434375145798125
      ],
      [
        ".2",
        -9.43455066542368
      ],
      [
        "統",
        -9.43473592400786
      ],
      [
        "デル",
        -9.434796758601316
      ],
      [
        "軸",
        -9.434809427876226
      ],
      [
        "途中",
        -9.435384524354602
      ],
      [
        "照",
        -9.435542899448118
      ],
      [
        "」、「",
        -9.435639804222452
      ],
      [
        "呼び",
        -9.435873855733533
      ],
      [
        "仏",
        -9.436004413227108
      ],
      [
        "合併",
        -9.43616909262292
      ],
      [
        "引退",
        -9.436344187606274
      ],
      [
        "確認",
        -9.436961504184644
      ],
      [
        "牧",
        -9.438323340715336
      ],
      [
        "詞",
        -9.43967785761892
      ],
      [
        "タイム",
        -9.440240619647692
      ],
      [
        "オール",
        -9.440923730067029
      ],
      [
        "同盟",
        -9.440947507932156
      ],
      [
        "被害",
        -9.441134309443829
      ],
      [
        "フラ",
        -9.44116001505899
      ],
      [
        "万人",
        -9.44214885304585
      ],
      [
        "することで",
        -9.442196822984103
      ],
      [
        "2017",
        -9.44261753706116
      ],
      [
        "民族",
        -9.442626687879397
      ],
      [
        "II",
        -9.443895779389274
      ],
      [
        "辞",
        -9.444008738541129
      ],
      [
        "大型",
        -9.44477575439508
      ],
      [
        "総合",
        -9.445133479902394
      ],
      [
        "鉱",
        -9.446343320266296
      ],
      [
        "たが",
        -9.446378315943608
      ],
      [
        "原因",
        -9.44664759046011
      ],
      [
        "ボール",
        -9.447457525866747
      ],
      [
        "生まれた",
        -9.447790183286743
      ],
      [
        "ウォー",
        -9.448209406847926
      ],
      [
        "虫",
        -9.44834700954489
      ],
      [
        "同じく",
        -9.44849920449274
      ],
      [
        "であること",
        -9.448962183601216
      ],
      [
        "オス",
        -9.44922378240537
      ],
      [
        "件",
        -9.449442915139516
      ],
      [
        "ケン",
        -9.451495160774986
      ],
      [
        "広く",
        -9.452187782228568
      ],
      [
        "可能性",
        -9.45256936262838
      ],
      [
        "用の",
        -9.452651083702536
      ],
      [
        "冬",
        -9.4542905634447
      ],
      [
        "茶",
        -9.454749226450025
      ],
      [
        "グル",
        -9.455170186205873
      ],
      [
        "雲",
        -9.455529436687272
      ],
      [
        "隠",
        -9.45598866840062
      ],
      [
        "られていた",
        -9.456776408010882
      ],
      [
        "ビア",
        -9.45783971553612
      ],
      [
        "ポリ",
        -9.45834603204939
      ],
      [
        "境",
        -9.45962337259405
      ],
      [
        "荷",
        -9.459992908112987
      ],
      [
        "ライト",
        -9.460918796646382
      ],
      [
        "指定",
        -9.461573153499568
      ],
      [
        "規定",
        -9.462298256625331
      ],
      [
        "易",
        -9.462511614739844
      ],
      [
        "安定",
        -9.463248468627135
      ],
      [
        "毎",
        -9.46350264120636
      ],
      [
        "油",
        -9.463517622256695
      ],
      [
        "黄",
        -9.463654889752563
      ],
      [
        "態",
        -9.463674381135496
      ],
      [
        "沈",
        -9.465264230978669
      ],
      [
        "維持",
        -9.466315339031716
      ],
      [
        "家族",
        -9.466364320926775
      ],
      [
        "のための",
        -9.466735505809709
      ],
      [
        "訳",
        -9.466923040407462
      ],
      [
        "アフリカ",
        -9.467120723875508
      ],
      [
        "雨",
        -9.467677953226069
      ],
      [
        "競技",
        -9.467681954249445
      ],
      [
        "BS",
        -9.468966649681832
      ],
      [
        "君",
        -9.469166221760856
      ],
      [
        "宗教",
        -9.46981384949935
      ],
      [
        "ティング",
        -9.470009221617152
      ],
      [
        "談",
        -9.470316429157991
      ],
      [
        "追い",
        -9.47046337779315
      ],
      [
        "アンド",
        -9.47074766055916
      ],
      [
        "安全",
        -9.470817816392346
      ],
      [
        "指導",
        -9.470989872933869
      ],
      [
        "封",
        -9.471356139698369
      ],
      [
        "ロンドン",
        -9.471531596504478
      ],
      [
        "1999",
        -9.471686993784887
      ],
      [
        "翌年",
        -9.471830178571372
      ],
      [
        "ヶ",
        -9.472058381231404
      ],
      [
        "速度",
        -9.473544770303224
      ],
      [
        "大臣",
        -9.47388084759615
      ],
      [
        "東部",
        -9.47391157552048
      ],
      [
        "制御",
        -9.474046854544977
      ],
      [
        "er ",
        -9.474779657253608
      ],
      [
        "備え",
        -9.47498929074297
      ],
      [
        "ショー",
        -9.475663429938832
      ],
      [
        "登板",
        -9.475705956455895
      ],
      [
        "策",
        -9.476493683677754
      ],
      [
        "これに",
        -9.479134721912915
      ],
      [
        "ていない",
        -9.47952946090851
      ],
      [
        "済",
        -9.479870747521332
      ],
      [
        "至",
        -9.480702880174196
      ],
      [
        "開業",
        -9.481289846320648
      ],
      [
        "ょ",
        -9.481309230847035
      ],
      [
        "不明",
        -9.48152339243414
      ],
      [
        "紹介",
        -9.483236640607256
      ],
      [
        "麻",
        -9.483463563693478
      ],
      [
        "IC",
        -9.484359898237985
      ],
      [
        "観光",
        -9.48456240292894
      ],
      [
        "太郎",
        -9.48467300040578
      ],
      [
        "本塁打",
        -9.484834338706545
      ],
      [
        "霊",
        -9.4849282462135
      ],
      [
        "市内",
        -9.484935069076032
      ],
      [
        "思い",
        -9.485295129750977
      ],
      [
        "学部",
        -9.486290829422964
      ],
      [
        "試",
        -9.486774662492731
      ],
      [
        "東京都",
        -9.486893886932355
      ],
      [
        "要求",
        -9.487037055165604
      ],
      [
        "ポー",
        -9.487263917388944
      ],
      [
        "植物",
        -9.48829501870822
      ],
      [
        "建物",
        -9.489648305885948
      ],
      [
        "サル",
        -9.489726882792992
      ],
      [
        "高等学校",
        -9.490576352662009
      ],
      [
        "含",
        -9.490759732813226
      ],
      [
        "行政",
        -9.49081296783665
      ],
      [
        "生物",
        -9.49098278267976
      ],
      [
        "ソ連",
        -9.491450294147176
      ],
      [
        "ne",
        -9.492463041977318
      ],
      [
        "38",
        -9.49258095235426
      ],
      [
        "審",
        -9.493003665040654
      ],
      [
        "新たな",
        -9.493109038740672
      ],
      [
        "因",
        -9.493224008436815
      ],
      [
        "記述",
        -9.49400509887865
      ],
      [
        "同時に",
        -9.49459710263541
      ],
      [
        "簡",
        -9.495241535666011
      ],
      [
        "避",
        -9.495349738319812
      ],
      [
        "“",
        -9.496245263883154
      ],
      [
        "それら",
        -9.496501906170243
      ],
      [
        "共和国",
        -9.496581655080366
      ],
      [
        "丘",
        -9.497202133080204
      ],
      [
        "模",
        -9.497265691473196
      ],
      [
        "作業",
        -9.497378121868898
      ],
      [
        "続く",
        -9.498183166547308
      ],
      [
        "男性",
        -9.499542706971877
      ],
      [
        "オフ",
        -9.49973390729995
      ],
      [
        "部門",
        -9.50020147173741
      ],
      [
        "精神",
        -9.500216362554855
      ],
      [
        "医",
        -9.501265730141023
      ],
      [
        "所有",
        -9.50134567637752
      ],
      [
        "\n",
        -9.501428634178144
      ],
      [
        "そのまま",
        -9.501559824381578
      ],
      [
        "伝統",
        -9.501695571255514
      ],
      [
        "したり",
        -9.5025088898496
      ],
      [
        "用いられ",
        -9.502618100058276
      ],
      [
        "慶",
        -9.5031070950283
      ],
      [
        "北海道",
        -9.503688934308084
      ],
      [
        "算",
        -9.504017468456434
      ],
      [
        "実現",
        -9.504060941043395
      ],
      [
        "ing",
        -9.504330120793387
      ],
      [
        "塔",
        -9.505324444276978
      ],
      [
        "途",
        -9.50639706873108
      ],
      [
        "衛",
        -9.506818915148283
      ],
      [
        "36",
        -9.506899634638614
      ],
      [
        "te",
        -9.507553956539828
      ],
      [
        "デー",
        -9.507672647307428
      ],
      [
        "選択",
        -9.50838116179005
      ],
      [
        "かり",
        -9.508594869618316
      ],
      [
        "億",
        -9.509110524882558
      ],
      [
        "の第",
        -9.509665530450208
      ],
      [
        "2019",
        -9.510035535949129
      ],
      [
        "まだ",
        -9.51258335473047
      ],
      [
        "j",
        -9.512637888022212
      ],
      [
        "魚",
        -9.512864401021504
      ],
      [
        "番号",
        -9.513879938514949
      ],
      [
        "株式会社",
        -9.515065455790962
      ],
      [
        "委員",
        -9.515150686607544
      ],
      [
        "プリ",
        -9.515160585460189
      ],
      [
        "防衛",
        -9.51573577975283
      ],
      [
        "ソフト",
        -9.518062996882175
      ],
      [
        "このような",
        -9.518909617416384
      ],
      [
        "購入",
        -9.519034150038928
      ],
      [
        "顔",
        -9.51907520756104
      ],
      [
        "攻",
        -9.519260226575716
      ],
      [
        "The ",
        -9.519776496081096
      ],
      [
        "環",
        -9.520756753257777
      ],
      [
        "を受ける",
        -9.523875376130084
      ],
      [
        "べき",
        -9.52388878890121
      ],
      [
        "万円",
        -9.525314153666388
      ],
      [
        "ve",
        -9.525327439783258
      ],
      [
        "フォン",
        -9.52545193857079
      ],
      [
        "メイン",
        -9.526885158609817
      ],
      [
        "普通",
        -9.527058007073856
      ],
      [
        "ていたが",
        -9.527376448002403
      ],
      [
        "ことがある",
        -9.527603734066318
      ],
      [
        "あまり",
        -9.527643143801953
      ],
      [
        "完全",
        -9.527667480062163
      ],
      [
        "抗",
        -9.528280633286256
      ],
      [
        "推",
        -9.528359428988065
      ],
      [
        "CD",
        -9.528485907102732
      ],
      [
        "連載",
        -9.528744403042475
      ],
      [
        "舞",
        -9.530204348018549
      ],
      [
        "小学校",
        -9.530449372110652
      ],
      [
        "ようになる",
        -9.530527410585083
      ],
      [
        "オブ",
        -9.530887337912002
      ],
      [
        "タイプ",
        -9.53102740717416
      ],
      [
        "印",
        -9.531070200938023
      ],
      [
        "会長",
        -9.53211268165452
      ],
      [
        "最終的に",
        -9.532228455305749
      ],
      [
        "処",
        -9.533358404879504
      ],
      [
        "床",
        -9.53410974914111
      ],
      [
        "メント",
        -9.535057883993383
      ],
      [
        "呼",
        -9.535168594394513
      ],
      [
        "主人公",
        -9.535309291406689
      ],
      [
        "備",
        -9.535973416163769
      ],
      [
        "障害",
        -9.537468057780732
      ],
      [
        "クレ",
        -9.539897790634654
      ],
      [
        "台湾",
        -9.54007018572464
      ],
      [
        "替",
        -9.54121867064201
      ],
      [
        "映",
        -9.542466845581403
      ],
      [
        "ブレ",
        -9.543862736240788
      ],
      [
        "許",
        -9.54398496805396
      ],
      [
        "奥",
        -9.545046187730572
      ],
      [
        "バック",
        -9.545515141019022
      ],
      [
        "雪",
        -9.547761326286146
      ],
      [
        "迫",
        -9.547962741226735
      ],
      [
        "カップ",
        -9.548866578154048
      ],
      [
        "ディング",
        -9.5490967615289
      ],
      [
        "合い",
        -9.549471762498268
      ],
      [
        "雑誌",
        -9.550508731432537
      ],
      [
        "まず",
        -9.550755798618953
      ],
      [
        "ぬ",
        -9.551999582837617
      ],
      [
        "...",
        -9.552127798697647
      ],
      [
        "始め",
        -9.552160256960832
      ],
      [
        "を果たした",
        -9.552375046049509
      ],
      [
        "統一",
        -9.552679405260662
      ],
      [
        "これが",
        -9.55278658787696
      ],
      [
        "九",
        -9.553312470271344
      ],
      [
        "緑",
        -9.553669539199236
      ],
      [
        "名古屋",
        -9.554024824005277
      ],
      [
        "ほ",
        -9.555270615890816
      ],
      [
        "グリ",
        -9.55541194154468
      ],
      [
        "要素",
        -9.555431914843393
      ],
      [
        "認められ",
        -9.555982017047215
      ],
      [
        "担",
        -9.556097464953664
      ],
      [
        "実験",
        -9.556328881793258
      ],
      [
        "1960",
        -9.556484512707494
      ],
      [
        "兄",
        -9.55724790671123
      ],
      [
        "日本では",
        -9.55753771444184
      ],
      [
        "どう",
        -9.55772805746922
      ],
      [
        "陥",
        -9.558136438328926
      ],
      [
        "チュ",
        -9.558802050223878
      ],
      [
        "江戸",
        -9.559563665363788
      ],
      [
        "横浜",
        -9.560191076917366
      ],
      [
        "専用",
        -9.560322443575073
      ],
      [
        "1998",
        -9.561734177325148
      ],
      [
        "厳",
        -9.561858729966753
      ],
      [
        "社長",
        -9.562336787304227
      ],
      [
        "ジョージ",
        -9.562753600057263
      ],
      [
        "排",
        -9.563607264640202
      ],
      [
        "誕生",
        -9.563629670849764
      ],
      [
        "役割",
        -9.56392723494768
      ],
      [
        "とされている",
        -9.563991016893684
      ],
      [
        "法人",
        -9.564236274155096
      ],
      [
        "制限",
        -9.56457905764803
      ],
      [
        "を持ち",
        -9.565389638703438
      ],
      [
        "統合",
        -9.565764883076795
      ],
      [
        "体制",
        -9.565855874496352
      ],
      [
        "貫",
        -9.566873911521682
      ],
      [
        "阿",
        -9.5670278840122
      ],
      [
        "行き",
        -9.567150021327292
      ],
      [
        "地上",
        -9.567244545103154
      ],
      [
        "九州",
        -9.567338539538506
      ],
      [
        "ボン",
        -9.5678323137562
      ],
      [
        "編集",
        -9.568112283192107
      ],
      [
        "としても",
        -9.568637186065688
      ],
      [
        "暗",
        -9.56879157524036
      ],
      [
        "エイ",
        -9.569347721288
      ],
      [
        "名前",
        -9.56960851956315
      ],
      [
        "一時",
        -9.569677014567256
      ],
      [
        "誤",
        -9.570524301178544
      ],
      [
        "飲",
        -9.57062732227218
      ],
      [
        "ネル",
        -9.570935777741012
      ],
      [
        "生き",
        -9.571126224857688
      ],
      [
        "龍",
        -9.571606552366188
      ],
      [
        "厚",
        -9.571658117363867
      ],
      [
        "このため",
        -9.571666904482086
      ],
      [
        "すべて",
        -9.571852535560945
      ],
      [
        "広島",
        -9.571924849184398
      ],
      [
        "勝ち",
        -9.572068002965242
      ],
      [
        "メディア",
        -9.572154840598726
      ],
      [
        "ナイ",
        -9.572342541141706
      ],
      [
        "犯",
        -9.57455878433672
      ],
      [
        "37",
        -9.574759530757715
      ],
      [
        "奉",
        -9.575067299621116
      ],
      [
        "初代",
        -9.575126164047251
      ],
      [
        "仁",
        -9.57522253894869
      ],
      [
        "冠",
        -9.5756884015793
      ],
      [
        "かつ",
        -9.575715401463832
      ],
      [
        "標準",
        -9.575857023167671
      ],
      [
        "ようになり",
        -9.57609956017987
      ],
      [
        "フィー",
        -9.576633406915468
      ],
      [
        "していない",
        -9.576806986503229
      ],
      [
        "理論",
        -9.577038199138473
      ],
      [
        "拠点",
        -9.577777431129382
      ],
      [
        "窓",
        -9.578280486806197
      ],
      [
        "指名",
        -9.579804498697854
      ],
      [
        "死去",
        -9.58003168025906
      ],
      [
        "筆",
        -9.580150898365556
      ],
      [
        "働",
        -9.580661898503358
      ],
      [
        "ウェイ",
        -9.5807132076176
      ],
      [
        "コース",
        -9.581016710933252
      ],
      [
        "んでいる",
        -9.581038246912057
      ],
      [
        "芸術",
        -9.581310313072557
      ],
      [
        "快",
        -9.581764448521934
      ],
      [
        "id",
        -9.581890770929858
      ],
      [
        "ぜ",
        -9.5828589396926
      ],
      [
        "施",
        -9.583317843531336
      ],
      [
        "健",
        -9.583573520667
      ],
      [
        "踏",
        -9.58395463008685
      ],
      [
        "泉",
        -9.584483838388572
      ],
      [
        "ul",
        -9.584756673043136
      ],
      [
        "奏",
        -9.585311158915149
      ],
      [
        "ポン",
        -9.585434042770554
      ],
      [
        "病院",
        -9.585563224139651
      ],
      [
        "浮",
        -9.58573115431468
      ],
      [
        "命令",
        -9.585813099711672
      ],
      [
        "自動",
        -9.586508799059306
      ],
      [
        "婚",
        -9.586927138688868
      ],
      [
        "サッカー",
        -9.587811725840089
      ],
      [
        "米国",
        -9.587841260975788
      ],
      [
        "集団",
        -9.589156826232836
      ],
      [
        "チン",
        -9.589357409120076
      ],
      [
        "たちは",
        -9.59018131767105
      ],
      [
        "チョ",
        -9.590772696024548
      ],
      [
        "充",
        -9.591447853156875
      ],
      [
        "長い",
        -9.591982796398137
      ],
      [
        "ブルー",
        -9.593271333203834
      ],
      [
        "しなかった",
        -9.593295040622944
      ],
      [
        "処理",
        -9.593530356652646
      ],
      [
        "柄",
        -9.593553948445868
      ],
      [
        "筋",
        -9.593817522511644
      ],
      [
        "um",
        -9.594630939501736
      ],
      [
        "第二次世界大戦",
        -9.59540042747884
      ],
      [
        "構",
        -9.595534299789811
      ],
      [
        "改革",
        -9.595595370149672
      ],
      [
        "ミニ",
        -9.59601898116161
      ],
      [
        "店舗",
        -9.597724408454647
      ],
      [
        "康",
        -9.597869387947776
      ],
      [
        "占領",
        -9.59851195996791
      ],
      [
        "賛",
        -9.598573774045184
      ],
      [
        "パル",
        -9.598617161071449
      ],
      [
        "大陸",
        -9.598955810238886
      ],
      [
        "ギャ",
        -9.599359717499777
      ],
      [
        "されていない",
        -9.599708717224551
      ],
      [
        "商品",
        -9.599719277262457
      ],
      [
        "ヘル",
        -9.60030888103423
      ],
      [
        "時には",
        -9.601509077417298
      ],
      [
        "重要",
        -9.601787807797855
      ],
      [
        "強く",
        -9.601942741923487
      ],
      [
        "導",
        -9.603536032287876
      ],
      [
        "に位置する",
        -9.604568643000473
      ],
      [
        "威",
        -9.60580419444246
      ],
      [
        "課",
        -9.606754961592552
      ],
      [
        "少ない",
        -9.607510791795669
      ],
      [
        "se",
        -9.608053383313424
      ],
      [
        "レーション",
        -9.608816325786368
      ],
      [
        "減少",
        -9.609478997237495
      ],
      [
        "索",
        -9.609706899207952
      ],
      [
        "申",
        -9.610152348264428
      ],
      [
        "暴",
        -9.61028266793111
      ],
      [
        "平均",
        -9.611351716429336
      ],
      [
        "犬",
        -9.611368830646745
      ],
      [
        "マイル",
        -9.611642928495078
      ],
      [
        "になると",
        -9.612358534718451
      ],
      [
        "自体",
        -9.612520797903844
      ],
      [
        "脳",
        -9.613302288108336
      ],
      [
        "丁目",
        -9.614422882087778
      ],
      [
        "メー",
        -9.61496748416503
      ],
      [
        "討",
        -9.615565415417583
      ],
      [
        "及",
        -9.61561796904429
      ],
      [
        "1997",
        -9.615755233922204
      ],
      [
        "ut",
        -9.615788523342411
      ],
      [
        "法律",
        -9.616521121356676
      ],
      [
        "付き",
        -9.617022800146556
      ],
      [
        "古代",
        -9.617099975925065
      ],
      [
        "死亡",
        -9.617465773582124
      ],
      [
        "我",
        -9.618531842315416
      ],
      [
        "作成",
        -9.618874465942085
      ],
      [
        "摩",
        -9.619125191741144
      ],
      [
        "lo",
        -9.61916496377524
      ],
      [
        "儀",
        -9.620044855433065
      ],
      [
        "In",
        -9.620067468730465
      ],
      [
        "んでいた",
        -9.62065005946733
      ],
      [
        "ヴァー",
        -9.620760404077156
      ],
      [
        "となって",
        -9.621087004790002
      ],
      [
        "創設",
        -9.62192076096894
      ],
      [
        "コンピュータ",
        -9.624003646840888
      ],
      [
        "完",
        -9.624419805646962
      ],
      [
        "提案",
        -9.624550646084284
      ],
      [
        "映像",
        -9.624679259305262
      ],
      [
        "開幕",
        -9.624847735986949
      ],
      [
        "刊",
        -9.62506235316456
      ],
      [
        "でき",
        -9.62534965213024
      ],
      [
        "径",
        -9.625526255121107
      ],
      [
        "一部の",
        -9.625597993906071
      ],
      [
        "ha",
        -9.625658322080316
      ],
      [
        "判断",
        -9.625971671309417
      ],
      [
        "失敗",
        -9.625974741230117
      ],
      [
        "首相",
        -9.626258338869222
      ],
      [
        "デュ",
        -9.626516231233872
      ],
      [
        "後半",
        -9.62659626611426
      ],
      [
        "-2",
        -9.627514562420735
      ],
      [
        "AT",
        -9.627561802798503
      ],
      [
        "全ての",
        -9.627902255448426
      ],
      [
        "してきた",
        -9.628357878371336
      ],
      [
        "荒",
        -9.628360121699886
      ],
      [
        "宣言",
        -9.628504616216071
      ],
      [
        "メーカー",
        -9.628508492433523
      ],
      [
        "隆",
        -9.628687623681389
      ],
      [
        "住宅",
        -9.628911864359267
      ],
      [
        "基地",
        -9.630434714842098
      ],
      [
        "ョ",
        -9.631334038879926
      ],
      [
        "剣",
        -9.63180425368436
      ],
      [
        "内部",
        -9.633681550594934
      ],
      [
        "コル",
        -9.633702533191537
      ],
      [
        "日まで",
        -9.634808581546697
      ],
      [
        "タウン",
        -9.635832282701848
      ],
      [
        "報道",
        -9.635886767425854
      ],
      [
        "段階",
        -9.63596069098243
      ],
      [
        "内閣",
        -9.636201573690114
      ],
      [
        "デイ",
        -9.636505707620122
      ],
      [
        "衣",
        -9.636690078070776
      ],
      [
        "電子",
        -9.636796616750711
      ],
      [
        "1996",
        -9.636832272715177
      ],
      [
        "ドー",
        -9.636835140434105
      ],
      [
        "AN",
        -9.637104141289246
      ],
      [
        "写",
        -9.63718279875124
      ],
      [
        "墓",
        -9.638838602475394
      ],
      [
        "雷",
        -9.639095587621297
      ],
      [
        "ドン",
        -9.639433664107573
      ],
      [
        "塁",
        -9.63973080910733
      ],
      [
        "マーク",
        -9.63999921143763
      ],
      [
        "フォード",
        -9.640167177556362
      ],
      [
        "菌",
        -9.640439220986494
      ],
      [
        "イングランド",
        -9.640454420678402
      ],
      [
        "ヴァン",
        -9.640474930366985
      ],
      [
        "獲得",
        -9.6406899924073
      ],
      [
        "落ち",
        -9.641934925792594
      ],
      [
        "55",
        -9.64219778222606
      ],
      [
        "限定",
        -9.642387350954149
      ],
      [
        "ニック",
        -9.642500565908204
      ],
      [
        "。2012",
        -9.642666021039354
      ],
      [
        "テーマ",
        -9.6428482775729
      ],
      [
        "剤",
        -9.64287264861701
      ],
      [
        "プル",
        -9.643140958188315
      ],
      [
        "半島",
        -9.644726006890734
      ],
      [
        "オル",
        -9.64737166171274
      ],
      [
        "禁止",
        -9.64830520291087
      ],
      [
        ".3",
        -9.648326439550209
      ],
      [
        "対立",
        -9.6502959546929
      ],
      [
        "卵",
        -9.6508782507873
      ],
      [
        "シティ",
        -9.65126139308644
      ],
      [
        "皇帝",
        -9.652716567489035
      ],
      [
        "?",
        -9.652833777167032
      ],
      [
        "動き",
        -9.653078522179673
      ],
      [
        "オープン",
        -9.653227637126427
      ],
      [
        "軌道",
        -9.653341115956302
      ],
      [
        "1995",
        -9.654213690544168
      ],
      [
        "太平洋",
        -9.654457220131365
      ],
      [
        "可能な",
        -9.658016787583014
      ],
      [
        "潜",
        -9.658494421405074
      ],
      [
        "範囲",
        -9.658704343004796
      ],
      [
        "セット",
        -9.659102953772235
      ],
      [
        "師団",
        -9.659230194019765
      ],
      [
        "ザン",
        -9.65936350895033
      ],
      [
        "分類",
        -9.660834157160872
      ],
      [
        "憲法",
        -9.660997639610889
      ],
      [
        "ポイント",
        -9.661266482969346
      ],
      [
        "責任",
        -9.661453646064924
      ],
      [
        "。2015",
        -9.661543244998628
      ],
      [
        "バラ",
        -9.661992720174474
      ],
      [
        "禁",
        -9.662000508820372
      ],
      [
        "ウィン",
        -9.66218339290245
      ],
      [
        "兄弟",
        -9.662357081126553
      ],
      [
        "こうした",
        -9.662981348635398
      ],
      [
        "ことが多い",
        -9.664020554301334
      ],
      [
        "唱",
        -9.664077637859725
      ],
      [
        "援",
        -9.664267756185918
      ],
      [
        "ウォ",
        -9.66464802631626
      ],
      [
        "an ",
        -9.665075772251694
      ],
      [
        "江戸時代",
        -9.665085691076785
      ],
      [
        "図書館",
        -9.665214421562062
      ],
      [
        "and",
        -9.665551465264814
      ],
      [
        "ブランド",
        -9.666805265880935
      ],
      [
        "- )",
        -9.667041249461583
      ],
      [
        "レッド",
        -9.66777856784694
      ],
      [
        "底",
        -9.667973212258088
      ],
      [
        "オランダ",
        -9.668336775212104
      ],
      [
        "ニング",
        -9.670321163743305
      ],
      [
        "染",
        -9.670595946229652
      ],
      [
        "作家",
        -9.67153884941069
      ],
      [
        "公演",
        -9.672067869572924
      ],
      [
        "恋",
        -9.67283048945263
      ],
      [
        "料理",
        -9.674050039675445
      ],
      [
        "裁判所",
        -9.674525695554747
      ],
      [
        "昇格",
        -9.674659441120587
      ],
      [
        "ウィリアム",
        -9.675802796628568
      ],
      [
        "投票",
        -9.676662404668678
      ],
      [
        "ステージ",
        -9.677416342076668
      ],
      [
        "露",
        -9.677746500774372
      ],
      [
        "刺",
        -9.677978800453612
      ],
      [
        "接続",
        -9.678170190174644
      ],
      [
        "てしまった",
        -9.6784671167055
      ],
      [
        "業務",
        -9.679162037315455
      ],
      [
        "となっていた",
        -9.679478411831523
      ],
      [
        "勤",
        -9.681207447476265
      ],
      [
        "OS",
        -9.681336121964586
      ],
      [
        "中学校",
        -9.68196478597715
      ],
      [
        "恵",
        -9.682807922487576
      ],
      [
        "ゴー",
        -9.68439703373796
      ],
      [
        "駐",
        -9.684710840087943
      ],
      [
        "序",
        -9.684942456584611
      ],
      [
        "しばしば",
        -9.6850580276631
      ],
      [
        "臨",
        -9.685466433188813
      ],
      [
        "発売された",
        -9.68676671005236
      ],
      [
        "鎮",
        -9.68713943373456
      ],
      [
        "つく",
        -9.687348212606704
      ],
      [
        "カナダ",
        -9.688424757585896
      ],
      [
        "レベル",
        -9.690371326842437
      ],
      [
        "脚",
        -9.691398445760564
      ],
      [
        "用いられる",
        -9.691757857462983
      ],
      [
        "づけ",
        -9.69181518645172
      ],
      [
        "形態",
        -9.692885019142247
      ],
      [
        "いずれも",
        -9.69297362528798
      ],
      [
        "os",
        -9.69364915318454
      ],
      [
        "矢",
        -9.693876007889108
      ],
      [
        "てしまう",
        -9.694903885366164
      ],
      [
        "網",
        -9.694925417692158
      ],
      [
        "IS",
        -9.694953149998474
      ],
      [
        "海外",
        -9.696256043656884
      ],
      [
        "募",
        -9.69638476066278
      ],
      [
        "向上",
        -9.696488455973508
      ],
      [
        "浅",
        -9.696618453299536
      ],
      [
        "研究所",
        -9.69699200963795
      ],
      [
        "ルート",
        -9.697485849518255
      ],
      [
        "性能",
        -9.698694959020292
      ],
      [
        "機構",
        -9.698736260879867
      ],
      [
        "婦",
        -9.698958388263389
      ],
      [
        "狭",
        -9.699368440404218
      ],
      [
        "提",
        -9.699443506895264
      ],
      [
        "善",
        -9.699488550164672
      ],
      [
        "と考えられている",
        -9.699885757685236
      ],
      [
        "建造",
        -9.700859741949603
      ],
      [
        "必",
        -9.701144964682742
      ],
      [
        "代目",
        -9.701472662288031
      ],
      [
        "にあたる",
        -9.701652692972385
      ],
      [
        "メジャー",
        -9.702321772637829
      ],
      [
        "交渉",
        -9.703135756516708
      ],
      [
        "定義",
        -9.703552726309956
      ],
      [
        "BC",
        -9.703568998845991
      ],
      [
        "炎",
        -9.703654748415763
      ],
      [
        "史上",
        -9.703702062476117
      ],
      [
        "400",
        -9.70439188715616
      ],
      [
        "諸島",
        -9.704798882051383
      ],
      [
        "豪",
        -9.704832292782996
      ],
      [
        "察",
        -9.70525261056122
      ],
      [
        "改正",
        -9.705612609020214
      ],
      [
        "更に",
        -9.705894716401328
      ],
      [
        "を開始した",
        -9.705900157275387
      ],
      [
        "受賞",
        -9.705959244568657
      ],
      [
        "訓練",
        -9.706732401007368
      ],
      [
        "貴族",
        -9.708715600827484
      ],
      [
        "を示し",
        -9.708737079239157
      ],
      [
        "緒",
        -9.709201303421482
      ],
      [
        "困難",
        -9.709557951734595
      ],
      [
        "強化",
        -9.710677538698157
      ],
      [
        "パラ",
        -9.711504014633537
      ],
      [
        "裁判",
        -9.711852163602847
      ],
      [
        "慮",
        -9.712223527943197
      ],
      [
        "供給",
        -9.71257085150931
      ],
      [
        "ティン",
        -9.712790016141357
      ],
      [
        "ものであった",
        -9.714487901813134
      ],
      [
        "ヶ月",
        -9.714597350071829
      ],
      [
        "共通",
        -9.715464669082492
      ],
      [
        "クー",
        -9.715495470120246
      ],
      [
        "資金",
        -9.717293382675653
      ],
      [
        "亜",
        -9.7179970098439
      ],
      [
        "干",
        -9.718235808686789
      ],
      [
        "ay",
        -9.718271269844465
      ],
      [
        "停止",
        -9.71899862145626
      ],
      [
        "既に",
        -9.71965320369383
      ],
      [
        "1994",
        -9.719711217767555
      ],
      [
        "継続",
        -9.71991590922682
      ],
      [
        "本部",
        -9.719959121830383
      ],
      [
        "メル",
        -9.720056138652527
      ],
      [
        "関東",
        -9.720195652214889
      ],
      [
        "止め",
        -9.72046140613388
      ],
      [
        "求",
        -9.72090369016934
      ],
      [
        "尊",
        -9.7209861018907
      ],
      [
        "商業",
        -9.722459952516154
      ],
      [
        "意見",
        -9.72246512650569
      ],
      [
        "歯",
        -9.72266390436306
      ],
      [
        "頂",
        -9.722843835989476
      ],
      [
        "同社",
        -9.723577415261769
      ],
      [
        "→",
        -9.72374398007303
      ],
      [
        "交換",
        -9.72393751220967
      ],
      [
        "ガル",
        -9.724024438090323
      ],
      [
        "傾向",
        -9.724256459200571
      ],
      [
        "紀元前",
        -9.724646600369097
      ],
      [
        "欧州",
        -9.72530361898226
      ],
      [
        "吹",
        -9.725366284099564
      ],
      [
        "磁",
        -9.72681054491885
      ],
      [
        "競",
        -9.726926782489508
      ],
      [
        "先発",
        -9.7270406410786
      ],
      [
        "伯",
        -9.728504640868715
      ],
      [
        "新たに",
        -9.728651288331385
      ],
      [
        "わずか",
        -9.728691923990558
      ],
      [
        "敷",
        -9.728739616718906
      ],
      [
        "観測",
        -9.72885850882009
      ],
      [
        "竜",
        -9.72916192668404
      ],
      [
        "を通じて",
        -9.729404095496914
      ],
      [
        "シーン",
        -9.729619382985812
      ],
      [
        "続いて",
        -9.730376275698331
      ],
      [
        "幕府",
        -9.731354044060774
      ],
      [
        "エア",
        -9.731763829918032
      ],
      [
        "小さな",
        -9.73222015002936
      ],
      [
        "署",
        -9.732366282508329
      ],
      [
        "この時",
        -9.733800137551093
      ],
      [
        "原作",
        -9.735563587011857
      ],
      [
        "腹",
        -9.735884742869075
      ],
      [
        "文書",
        -9.73612385835786
      ],
      [
        "夢",
        -9.736431822087464
      ],
      [
        "込む",
        -9.736572772033062
      ],
      [
        "キュ",
        -9.73683392015809
      ],
      [
        "キリスト教",
        -9.7374357365186
      ],
      [
        "エネルギー",
        -9.73837947078264
      ],
      [
        "打率",
        -9.738629465487003
      ],
      [
        "貴",
        -9.739306506719055
      ],
      [
        "任務",
        -9.73955029386114
      ],
      [
        "機械",
        -9.739626708054846
      ],
      [
        "これにより",
        -9.739698933298673
      ],
      [
        "宣",
        -9.739729077942672
      ],
      [
        "誘",
        -9.74014122011675
      ],
      [
        "葬",
        -9.740513957773748
      ],
      [
        "電力",
        -9.740799148694448
      ],
      [
        "植民地",
        -9.742592943552928
      ],
      [
        "ER",
        -9.742979760167431
      ],
      [
        "奇",
        -9.743081431751108
      ],
      [
        "参戦",
        -9.743286123837237
      ],
      [
        "灯",
        -9.743509985694104
      ],
      [
        "アク",
        -9.745234194927017
      ],
      [
        "覇",
        -9.745410078205111
      ],
      [
        "移転",
        -9.745594271391546
      ],
      [
        "牛",
        -9.74577825542512
      ],
      [
        "ってきた",
        -9.746697725634586
      ],
      [
        "車体",
        -9.7467852024773
      ],
      [
        "ed",
        -9.74708411021809
      ],
      [
        "レッ",
        -9.74725903359474
      ],
      [
        "-0",
        -9.747676976251476
      ],
      [
        "比較的",
        -9.74781522690085
      ],
      [
        "ot",
        -9.7483264937765
      ],
      [
        "反応",
        -9.748377956837656
      ],
      [
        "をもって",
        -9.749520447674644
      ],
      [
        "ここで",
        -9.749713985647986
      ],
      [
        "還",
        -9.75081392512871
      ],
      [
        "停",
        -9.751234961791754
      ],
      [
        "艇",
        -9.751255529255864
      ],
      [
        "ST",
        -9.751573451043647
      ],
      [
        "海岸",
        -9.751911133552676
      ],
      [
        "首都",
        -9.752061253709376
      ],
      [
        "近代",
        -9.752092070177202
      ],
      [
        "リュ",
        -9.753569927959417
      ],
      [
        "ベルク",
        -9.754096564526424
      ],
      [
        "プログラム",
        -9.754595024958345
      ],
      [
        "SS",
        -9.755229503587133
      ],
      [
        "設けられ",
        -9.755439448880042
      ],
      [
        "操作",
        -9.755491320949613
      ],
      [
        "ヒット",
        -9.755837560458486
      ],
      [
        "展",
        -9.756074651364685
      ],
      [
        "ed ",
        -9.756234065743811
      ],
      [
        "電車",
        -9.756926513146096
      ],
      [
        "RA",
        -9.75698717422109
      ],
      [
        "to",
        -9.757335233026396
      ],
      [
        "ing ",
        -9.757346687627924
      ],
      [
        "わせ",
        -9.757377891112665
      ],
      [
        "US",
        -9.757991056484586
      ],
      [
        "プロジェクト",
        -9.758564282030155
      ],
      [
        "に至る",
        -9.760561170757295
      ],
      [
        "後述",
        -9.760674467111818
      ],
      [
        "農業",
        -9.760714891369023
      ],
      [
        "廷",
        -9.761116074263557
      ],
      [
        "することができる",
        -9.76113517121113
      ],
      [
        "扱",
        -9.761771619951205
      ],
      [
        "伝え",
        -9.762223921860198
      ],
      [
        "意識",
        -9.762564225293946
      ],
      [
        "主要",
        -9.762643031605496
      ],
      [
        "オリジナル",
        -9.76305005404671
      ],
      [
        "換",
        -9.763059216992817
      ],
      [
        "と呼ぶ",
        -9.7631773723873
      ],
      [
        "AR",
        -9.7638043332808
      ],
      [
        "復活",
        -9.765553942911502
      ],
      [
        "織",
        -9.766373168612288
      ],
      [
        "ent",
        -9.766831406330462
      ],
      [
        "が存在する",
        -9.76743606190013
      ],
      [
        "残り",
        -9.767596430182426
      ],
      [
        "監",
        -9.769023649844968
      ],
      [
        "彦",
        -9.769188203693464
      ],
      [
        "押し",
        -9.769486330456266
      ],
      [
        "できた",
        -9.769738596996527
      ],
      [
        "則",
        -9.770182737089891
      ],
      [
        "ツアー",
        -9.770727872391976
      ],
      [
        "延長",
        -9.771162636037342
      ],
      [
        "徒",
        -9.771724310637827
      ],
      [
        "オリンピック",
        -9.771893460549798
      ],
      [
        "1992",
        -9.772090402455088
      ],
      [
        "耐",
        -9.772649721403816
      ],
      [
        "記事",
        -9.772658968460952
      ],
      [
        "改造",
        -9.773492200023371
      ],
      [
        "株",
        -9.773693231841175
      ],
      [
        "領域",
        -9.774186631714407
      ],
      [
        "が設置され",
        -9.775659812037826
      ],
      [
        "暦",
        -9.775870234416116
      ],
      [
        "伸",
        -9.77639767701717
      ],
      [
        "稿",
        -9.77669281102512
      ],
      [
        "福岡",
        -9.77695157135696
      ],
      [
        "行った",
        -9.777301617354295
      ],
      [
        "仲",
        -9.77761118296274
      ],
      [
        "長官",
        -9.778024162514964
      ],
      [
        "なくなった",
        -9.778443589159757
      ],
      [
        "前後",
        -9.778728996648102
      ],
      [
        "地下",
        -9.778910833668556
      ],
      [
        "ジン",
        -9.779652078480217
      ],
      [
        "を行っている",
        -9.779738428897463
      ],
      [
        "乳",
        -9.779862888175584
      ],
      [
        "スタート",
        -9.781870793144323
      ],
      [
        "目標",
        -9.782110106129188
      ],
      [
        "ダウン",
        -9.782335506358494
      ],
      [
        "楽曲",
        -9.783326206686342
      ],
      [
        "逮捕",
        -9.783999158927498
      ],
      [
        "トラック",
        -9.784238458227842
      ],
      [
        "年 ",
        -9.784694976365826
      ],
      [
        "労",
        -9.78495067826732
      ],
      [
        "チャンピオン",
        -9.785658411379751
      ],
      [
        "氷",
        -9.786489015440049
      ],
      [
        "1993",
        -9.786546893913435
      ],
      [
        "弘",
        -9.786936585779848
      ],
      [
        "毎年",
        -9.787470751479692
      ],
      [
        "いわゆる",
        -9.788152439793686
      ],
      [
        "ィ",
        -9.789004598866308
      ],
      [
        "ッカー",
        -9.789477299908537
      ],
      [
        "ことができる",
        -9.789586356105056
      ],
      [
        "スタジオ",
        -9.789628176824246
      ],
      [
        "自己",
        -9.79015281379869
      ],
      [
        "鏡",
        -9.79084534379883
      ],
      [
        "眼",
        -9.79129486859433
      ],
      [
        "日本語",
        -9.791316986044018
      ],
      [
        "ベスト",
        -9.79161498987166
      ],
      [
        "NH",
        -9.791714406223123
      ],
      [
        "ェ",
        -9.79271308634124
      ],
      [
        "なければ",
        -9.792839380035314
      ],
      [
        "扱い",
        -9.79302672558232
      ],
      [
        "ノン",
        -9.793193922608058
      ],
      [
        "民主党",
        -9.794604188989757
      ],
      [
        "借",
        -9.794898360153674
      ],
      [
        "1950",
        -9.79491253469632
      ],
      [
        "杉",
        -9.79502729674924
      ],
      [
        "痛",
        -9.795156249971592
      ],
      [
        "を示す",
        -9.795379560637992
      ],
      [
        "幹",
        -9.795643580382473
      ],
      [
        "太陽",
        -9.7957053406533
      ],
      [
        "空間",
        -9.796873632924196
      ],
      [
        "第三",
        -9.797385871726014
      ],
      [
        "オーストラリア",
        -9.79799766588514
      ],
      [
        "譲",
        -9.798470274868512
      ],
      [
        "故",
        -9.798470885440956
      ],
      [
        "寛",
        -9.798644287612005
      ],
      [
        "治療",
        -9.799036429236816
      ],
      [
        "却",
        -9.799332791777903
      ],
      [
        "普及",
        -9.799784160417792
      ],
      [
        "込んだ",
        -9.799907820115171
      ],
      [
        "球団",
        -9.799912986530456
      ],
      [
        "漁",
        -9.800068835396685
      ],
      [
        "限り",
        -9.80024694511693
      ],
      [
        "ということ",
        -9.800307701050516
      ],
      [
        "注目",
        -9.80070998499854
      ],
      [
        "ポーランド",
        -9.800853196715938
      ],
      [
        "由来",
        -9.801013572437618
      ],
      [
        "沼",
        -9.802274408603587
      ],
      [
        "レコード",
        -9.803715507116072
      ],
      [
        "溶",
        -9.803769177192292
      ],
      [
        "託",
        -9.8038342178427
      ],
      [
        "権利",
        -9.804275259323251
      ],
      [
        "ニュース",
        -9.804682272317583
      ],
      [
        "刑",
        -9.80474754544865
      ],
      [
        "微",
        -9.80591775539943
      ],
      [
        "王座",
        -9.8062071574275
      ],
      [
        "災",
        -9.806673842296275
      ],
      [
        "レギュラー",
        -9.807157139625804
      ],
      [
        "1991",
        -9.807180816665191
      ],
      [
        "基準",
        -9.80763719907942
      ],
      [
        "危険",
        -9.809250049023849
      ],
      [
        "事務所",
        -9.8096883280118
      ],
      [
        "実行",
        -9.81010351475752
      ],
      [
        "化学",
        -9.81066495811354
      ],
      [
        "起用",
        -9.810690803013188
      ],
      [
        "綱",
        -9.810752628100456
      ],
      [
        "貨物",
        -9.811157593736054
      ],
      [
        "国道",
        -9.811736711022348
      ],
      [
        "医療",
        -9.811923756647309
      ],
      [
        "600",
        -9.812380093273758
      ],
      [
        "長さ",
        -9.812476267712093
      ],
      [
        "1989",
        -9.813208094091692
      ],
      [
        "小型",
        -9.814323356160097
      ],
      [
        "対策",
        -9.814958110346788
      ],
      [
        "イメージ",
        -9.81583986559016
      ],
      [
        "日本人",
        -9.816391835242666
      ],
      [
        "TO",
        -9.81639976245766
      ],
      [
        "分離",
        -9.816879846726255
      ],
      [
        "拠",
        -9.817722191756197
      ],
      [
        "陰",
        -9.818973113690014
      ],
      [
        "到着",
        -9.819648728310934
      ],
      [
        "価格",
        -9.820393275170764
      ],
      [
        "ポート",
        -9.82082814925307
      ],
      [
        "つき",
        -9.82088935582087
      ],
      [
        "週間",
        -9.821011687200798
      ],
      [
        "免",
        -9.82101678396076
      ],
      [
        "訴",
        -9.8227447628941
      ],
      [
        "握",
        -9.82294307953388
      ],
      [
        "消費",
        -9.82299559284378
      ],
      [
        "ホテル",
        -9.823269111349116
      ],
      [
        "準備",
        -9.823422443730646
      ],
      [
        "地震",
        -9.82462140928912
      ],
      [
        "撤退",
        -9.82466652334078
      ],
      [
        "覆",
        -9.825066856671164
      ],
      [
        "すれば",
        -9.825670307849764
      ],
      [
        "レット",
        -9.826576946345824
      ],
      [
        "敬",
        -9.826995433446976
      ],
      [
        "結局",
        -9.827225464203153
      ],
      [
        "行う",
        -9.827868700976468
      ],
      [
        "MA",
        -9.82837349079265
      ],
      [
        "宇",
        -9.829121817753542
      ],
      [
        "象",
        -9.829350748481424
      ],
      [
        "シル",
        -9.830039400136814
      ],
      [
        "爵",
        -9.830336505049065
      ],
      [
        "壊",
        -9.83174847773932
      ],
      [
        "毒",
        -9.83200044889814
      ],
      [
        "特殊",
        -9.832559246587271
      ],
      [
        "ハウス",
        -9.834220239725664
      ],
      [
        "ホル",
        -9.83431409205547
      ],
      [
        "思想",
        -9.834606242912663
      ],
      [
        "だけでなく",
        -9.83518329143249
      ],
      [
        "払",
        -9.837850001359858
      ],
      [
        "プレイヤー",
        -9.83831171316373
      ],
      [
        "父親",
        -9.838314379892031
      ],
      [
        "抱",
        -9.838872671575327
      ],
      [
        "ムー",
        -9.839066081595565
      ],
      [
        "180",
        -9.839533624609745
      ],
      [
        "ャ",
        -9.839556437366229
      ],
      [
        "なければならない",
        -9.841276170728351
      ],
      [
        "生徒",
        -9.841846220990591
      ],
      [
        "セイ",
        -9.841912092351466
      ],
      [
        "資料",
        -9.841940386790792
      ],
      [
        "岐",
        -9.84194648989672
      ],
      [
        "きっかけ",
        -9.842155003720112
      ],
      [
        "連絡",
        -9.842207511756856
      ],
      [
        "期待",
        -9.84278874351248
      ],
      [
        "隔",
        -9.843032816685817
      ],
      [
        "1000",
        -9.84316411065322
      ],
      [
        "統治",
        -9.844382157773609
      ],
      [
        "推進",
        -9.844514365943676
      ],
      [
        "継承",
        -9.845879414577498
      ],
      [
        "もしくは",
        -9.846204139395043
      ],
      [
        "記載",
        -9.846612682363626
      ],
      [
        "不足",
        -9.84718753790773
      ],
      [
        "届",
        -9.847575197375749
      ],
      [
        "振り",
        -9.847632570913335
      ],
      [
        "ビデオ",
        -9.848251658632355
      ],
      [
        "夕",
        -9.848390941277096
      ],
      [
        "改良",
        -9.848816262560597
      ],
      [
        "憲",
        -9.848909304373088
      ],
      [
        "怪",
        -9.850502975641977
      ],
      [
        "検討",
        -9.851247889188064
      ],
      [
        "周囲",
        -9.851405679636322
      ],
      [
        "伴",
        -9.85159036935098
      ],
      [
        "知られている",
        -9.851817202974535
      ],
      [
        "すなわち",
        -9.85193354877941
      ],
      [
        "博士",
        -9.852628603496928
      ],
      [
        "娘",
        -9.853085466382076
      ],
      [
        "主演",
        -9.853430801182524
      ],
      [
        "すでに",
        -9.853638857208356
      ],
      [
        "囲",
        -9.854143942654169
      ],
      [
        "沖",
        -9.855740191765452
      ],
      [
        "ta",
        -9.856573576835748
      ],
      [
        "ストーリー",
        -9.857550329764557
      ],
      [
        "知事",
        -9.857824129839106
      ],
      [
        "益",
        -9.857987932538672
      ],
      [
        "ゲル",
        -9.85801924482472
      ],
      [
        "機体",
        -9.858408223968986
      ],
      [
        "800",
        -9.85920989929283
      ],
      [
        "系列",
        -9.86131174335932
      ],
      [
        "配信",
        -9.862196493328565
      ],
      [
        "答",
        -9.86241728185403
      ],
      [
        "投手",
        -9.862554635176124
      ],
      [
        "執",
        -9.86359573272541
      ],
      [
        "比較",
        -9.864218404497768
      ],
      [
        "過ぎ",
        -9.86435045046832
      ],
      [
        "方針",
        -9.86479639107454
      ],
      [
        "載",
        -9.864949535288035
      ],
      [
        "家庭",
        -9.866085404822169
      ],
      [
        "スー",
        -9.866219952545077
      ],
      [
        "リュー",
        -9.866326316540077
      ],
      [
        "試み",
        -9.866463338651911
      ],
      [
        "連隊",
        -9.866511955137655
      ],
      [
        "二人",
        -9.867043993226504
      ],
      [
        "塗",
        -9.867269788506633
      ],
      [
        "1945",
        -9.867275900908105
      ],
      [
        "中継",
        -9.867303677129954
      ],
      [
        "ケル",
        -9.868433015212316
      ],
      [
        "欧",
        -9.86852093450832
      ],
      [
        "少女",
        -9.869349333088484
      ],
      [
        "ておらず",
        -9.869395409568249
      ],
      [
        "操",
        -9.870182971515506
      ],
      [
        "恐",
        -9.870187230112007
      ],
      [
        ".4",
        -9.870198970137906
      ],
      [
        "ow",
        -9.870372427154049
      ],
      [
        "を得た",
        -9.870615672750754
      ],
      [
        "ge",
        -9.871850124760734
      ],
      [
        "占",
        -9.872062076014869
      ],
      [
        "宅",
        -9.87264140046063
      ],
      [
        "概念",
        -9.872901928501292
      ],
      [
        "再開",
        -9.873377596209552
      ],
      [
        "損",
        -9.873675801907003
      ],
      [
        "率いる",
        -9.87368415153
      ],
      [
        "かなり",
        -9.874560317446743
      ],
      [
        "ベイ",
        -9.874705297525054
      ],
      [
        "薄",
        -9.874852433530318
      ],
      [
        "覧",
        -9.877089492730716
      ],
      [
        "回転",
        -9.87834885466826
      ],
      [
        "読み",
        -9.878533851689223
      ],
      [
        "交流",
        -9.878568149026936
      ],
      [
        "出力",
        -9.878790964129784
      ],
      [
        "拝",
        -9.87926142660402
      ],
      [
        "籍",
        -9.87956500253401
      ],
      [
        "ゴン",
        -9.87956656183671
      ],
      [
        "鹿",
        -9.88066512722382
      ],
      [
        "笑",
        -9.8806651818787
      ],
      [
        "競走",
        -9.880800440798849
      ],
      [
        "幾",
        -9.883126505201844
      ],
      [
        "-3",
        -9.883438744303918
      ],
      [
        "これまで",
        -9.88417417808205
      ],
      [
        "慣",
        -9.884676729237125
      ],
      [
        "柱",
        -9.884817777934366
      ],
      [
        "単位",
        -9.884847765481274
      ],
      [
        "刀",
        -9.885523319996008
      ],
      [
        "煙",
        -9.886653223720844
      ],
      [
        "票",
        -9.887216424123803
      ],
      [
        "その他",
        -9.88726425045126
      ],
      [
        "物質",
        -9.887848572943213
      ],
      [
        "基本的に",
        -9.888113436539856
      ],
      [
        "帰国",
        -9.888263327320132
      ],
      [
        "だろう",
        -9.88869896983864
      ],
      [
        "0%",
        -9.8888131853771
      ],
      [
        "諸国",
        -9.890005110133137
      ],
      [
        "コード",
        -9.890778214999116
      ],
      [
        "系統",
        -9.891109210061057
      ],
      [
        "謝",
        -9.891824671911642
      ],
      [
        "勧",
        -9.892037770363848
      ],
      [
        "当て",
        -9.89215533833105
      ],
      [
        "仕様",
        -9.893384087091173
      ],
      [
        "カール",
        -9.89349548710714
      ],
      [
        "発射",
        -9.895499367247425
      ],
      [
        "多い",
        -9.89551754034222
      ],
      [
        "オーストリア",
        -9.896238860044438
      ],
      [
        "を指す",
        -9.896630218440182
      ],
      [
        "燃料",
        -9.89685923227598
      ],
      [
        "スタイル",
        -9.897843983676788
      ],
      [
        "殺害",
        -9.898021352674936
      ],
      [
        "を用いて",
        -9.898472350066154
      ],
      [
        "機器",
        -9.89896591429222
      ],
      [
        "取引",
        -9.899731950269178
      ],
      [
        "買",
        -9.90132538296783
      ],
      [
        "連盟",
        -9.902090841512353
      ],
      [
        "抵抗",
        -9.902123179152609
      ],
      [
        "1988",
        -9.904223798157789
      ],
      [
        "ニャ",
        -9.90528568987811
      ],
      [
        "防御率",
        -9.905332324401714
      ],
      [
        "沖縄",
        -9.9054350447173
      ],
      [
        "保存",
        -9.90567115470965
      ],
      [
        "償",
        -9.90584342596678
      ],
      [
        "堀",
        -9.90620363056673
      ],
      [
        "腕",
        -9.906491887693956
      ],
      [
        "やがて",
        -9.906584742791935
      ],
      [
        "許可",
        -9.907676748605216
      ],
      [
        "拒否",
        -9.908741889958003
      ],
      [
        "使われる",
        -9.90888285284306
      ],
      [
        "ころ",
        -9.909837671146494
      ],
      [
        "教師",
        -9.909875175076804
      ],
      [
        "ワールド",
        -9.909945114703484
      ],
      [
        "鶴",
        -9.9101744682134
      ],
      [
        "揚",
        -9.910391513504273
      ],
      [
        "低い",
        -9.910424576374144
      ],
      [
        "発言",
        -9.910677641012455
      ],
      [
        "民間",
        -9.910696098715702
      ],
      [
        "解放",
        -9.910707100732784
      ],
      [
        "侵攻",
        -9.910914560347363
      ],
      [
        "神戸",
        -9.911064281761876
      ],
      [
        "兵士",
        -9.911139110333998
      ],
      [
        "部屋",
        -9.912986957289048
      ],
      [
        "績",
        -9.9131561374513
      ],
      [
        "解散",
        -9.914888054450095
      ],
      [
        "寿",
        -9.914960380685631
      ],
      [
        "GP",
        -9.915005742643528
      ],
      [
        "包",
        -9.915053188507825
      ],
      [
        "掲",
        -9.915562790461724
      ],
      [
        "結び",
        -9.91561373436249
      ],
      [
        "低下",
        -9.915708822902356
      ],
      [
        "債",
        -9.915760264381218
      ],
      [
        "才",
        -9.916051289884248
      ],
      [
        "整",
        -9.916310743700686
      ],
      [
        "秘",
        -9.917291282901427
      ],
      [
        "展示",
        -9.917870614607358
      ],
      [
        "誰",
        -9.918382547996554
      ],
      [
        "背景",
        -9.918742956727012
      ],
      [
        "庭",
        -9.918827575271155
      ],
      [
        "ポル",
        -9.918847741549463
      ],
      [
        "を意味する",
        -9.919003958857214
      ],
      [
        "李",
        -9.920865479128274
      ],
      [
        "ずつ",
        -9.921299532524472
      ],
      [
        "認識",
        -9.921767449782164
      ],
      [
        "司令官",
        -9.921963036505783
      ],
      [
        "改善",
        -9.922252039327017
      ],
      [
        "万ドル",
        -9.923605673724014
      ],
      [
        "束",
        -9.925156167433157
      ],
      [
        "ill",
        -9.925919283164994
      ],
      [
        "富士",
        -9.926120361682743
      ],
      [
        "移行",
        -9.926592954990488
      ],
      [
        "回復",
        -9.927130928803765
      ],
      [
        "俗",
        -9.927247074904358
      ],
      [
        "理解",
        -9.927426043723148
      ],
      [
        "やすい",
        -9.927862697938169
      ],
      [
        "制定",
        -9.928902103153623
      ],
      [
        "穴",
        -9.92938335564217
      ],
      [
        "コーナー",
        -9.92993442222486
      ],
      [
        "事実",
        -9.930093258424842
      ],
      [
        "に位置し",
        -9.93017676644952
      ],
      [
        "を起こし",
        -9.932781360687132
      ],
      [
        "貿易",
        -9.932781992107689
      ],
      [
        "柔",
        -9.933225393688776
      ],
      [
        "芝",
        -9.933447500745189
      ],
      [
        "設備",
        -9.933904204064875
      ],
      [
        "繋",
        -9.933965942468904
      ],
      [
        "吸",
        -9.934042414072067
      ],
      [
        "今日",
        -9.934079946268886
      ],
      [
        "電話",
        -9.93551909718436
      ],
      [
        "美術",
        -9.937511209578314
      ],
      [
        "裕",
        -9.938346378604844
      ],
      [
        "q",
        -9.938569626112734
      ],
      [
        "桜",
        -9.938867367005788
      ],
      [
        "世代",
        -9.94020131001568
      ],
      [
        "ていく",
        -9.940887129459192
      ],
      [
        "効",
        -9.94110706955108
      ],
      [
        "怒",
        -9.94125249093195
      ],
      [
        "勇",
        -9.941476388238549
      ],
      [
        "止",
        -9.94253879038896
      ],
      [
        "を結ぶ",
        -9.943437908789637
      ],
      [
        "1987",
        -9.94390543120386
      ],
      [
        "更新",
        -9.944268890553944
      ],
      [
        "1985",
        -9.944956988229968
      ],
      [
        "アウト",
        -9.945964562641992
      ],
      [
        "フェン",
        -9.94790913682688
      ],
      [
        "取得",
        -9.948045351332228
      ],
      [
        "博物館",
        -9.948968785016804
      ],
      [
        "詳",
        -9.9489881792719
      ],
      [
        "ユダヤ人",
        -9.949176462883973
      ],
      [
        "イオン",
        -9.949654894822304
      ],
      [
        "洗",
        -9.949720766953494
      ],
      [
        "議論",
        -9.95003854124932
      ],
      [
        "TV",
        -9.950220036446307
      ],
      [
        "労働者",
        -9.9513161644847
      ],
      [
        "輝",
        -9.951830233964436
      ],
      [
        "那",
        -9.952056512438666
      ],
      [
        "設立された",
        -9.95208524079662
      ],
      [
        "医学",
        -9.952449789094958
      ],
      [
        "チュー",
        -9.955005334445342
      ],
      [
        "金属",
        -9.955257177164684
      ],
      [
        "固定",
        -9.955409608789497
      ],
      [
        "障",
        -9.955665915119766
      ],
      [
        "形状",
        -9.956058529191772
      ],
      [
        "ion",
        -9.95686120738354
      ],
      [
        "良い",
        -9.958358705461198
      ],
      [
        "否定",
        -9.958439063951236
      ],
      [
        "銅",
        -9.958640960654945
      ],
      [
        "大きい",
        -9.959283882964666
      ],
      [
        "潮",
        -9.959932655993864
      ],
      [
        "信号",
        -9.960063222552265
      ],
      [
        "茂",
        -9.960541090434516
      ],
      [
        "少なく",
        -9.96120735437498
      ],
      [
        "遅",
        -9.961331237698484
      ],
      [
        "唐",
        -9.961606742295078
      ],
      [
        "ard",
        -9.96272290195469
      ],
      [
        "di",
        -9.96273518515436
      ],
      [
        "フィールド",
        -9.963359330075296
      ],
      [
        "進学",
        -9.963657670629722
      ],
      [
        "姓",
        -9.96404679078045
      ],
      [
        "NE",
        -9.965672730748595
      ],
      [
        "刊行",
        -9.965675668833024
      ],
      [
        "解決",
        -9.96575201647654
      ],
      [
        "泊",
        -9.966263239256303
      ],
      [
        "ポール",
        -9.967032308402096
      ],
      [
        "箱",
        -9.968331254698198
      ],
      [
        "平和",
        -9.968511890051913
      ],
      [
        "階級",
        -9.970112813055495
      ],
      [
        "を使って",
        -9.971044127078
      ],
      [
        "燃",
        -9.971271670350538
      ],
      [
        "硬",
        -9.971864420167677
      ],
      [
        "地帯",
        -9.971945726468991
      ],
      [
        "早く",
        -9.972155950315612
      ],
      [
        "崩壊",
        -9.972446095429415
      ],
      [
        "表面",
        -9.973035672829248
      ],
      [
        "を有する",
        -9.97318135772388
      ],
      [
        "中止",
        -9.973199333704246
      ],
      [
        "区別",
        -9.973230162667797
      ],
      [
        "嫌",
        -9.974175402206482
      ],
      [
        "1986",
        -9.974370407019562
      ],
      [
        "顕",
        -9.974406794417195
      ],
      [
        "すべき",
        -9.975035215364532
      ],
      [
        "録",
        -9.975533371812986
      ],
      [
        "ジョー",
        -9.975898703252556
      ],
      [
        "羅",
        -9.97610530862512
      ],
      [
        "互",
        -9.978061091683166
      ],
      [
        "筒",
        -9.978193799482218
      ],
      [
        "須",
        -9.978581020180547
      ],
      [
        "後期",
        -9.980021319126946
      ],
      [
        "友人",
        -9.98004909371454
      ],
      [
        "供",
        -9.98019128621548
      ],
      [
        "彩",
        -9.980674709386244
      ],
      [
        ";",
        -9.981218229859014
      ],
      [
        "賞を受賞",
        -9.981228374137665
      ],
      [
        "推定",
        -9.981632019448108
      ],
      [
        "危機",
        -9.982249164802017
      ],
      [
        "姫",
        -9.982850566015436
      ],
      [
        "挑戦",
        -9.983519811464111
      ],
      [
        "湯",
        -9.983550955148768
      ],
      [
        "デジタル",
        -9.983629933361078
      ],
      [
        "兵器",
        -9.984704744554094
      ],
      [
        "を目指し",
        -9.984761366314496
      ],
      [
        "上昇",
        -9.984951955226569
      ],
      [
        "歩兵",
        -9.985259132549915
      ],
      [
        "掘",
        -9.987383837661556
      ],
      [
        "カメラ",
        -9.987979410538474
      ],
      [
        "ウェル",
        -9.989973131365764
      ],
      [
        "惑星",
        -9.99072946983696
      ],
      [
        "関西",
        -9.99139793028732
      ],
      [
        "主催",
        -9.991879115457424
      ],
      [
        "貞",
        -9.99332964528452
      ],
      [
        "哲学",
        -9.99362439559872
      ],
      [
        "俳優",
        -9.994547179088606
      ],
      [
        "武器",
        -9.995487938554149
      ],
      [
        "に敗れ",
        -9.995702061931112
      ],
      [
        "貸",
        -9.99624257444083
      ],
      [
        "モード",
        -9.99697466230579
      ],
      [
        "共産党",
        -9.99711050063036
      ],
      [
        "逃げ",
        -9.997246483861725
      ],
      [
        "如",
        -9.997899641022885
      ],
      [
        "反乱",
        -9.998566986578547
      ],
      [
        "遅れ",
        -9.999450142446085
      ],
      [
        "識",
        -9.99949218636594
      ],
      [
        "脚本",
        -9.999762887918772
      ],
      [
        "侯",
        -10.000113343155142
      ],
      [
        "融",
        -10.001234040592028
      ],
      [
        "こともあり",
        -10.002973437088192
      ],
      [
        "に加え",
        -10.003987676612622
      ],
      [
        "智",
        -10.00399915295932
      ],
      [
        "開設",
        -10.004547779526709
      ],
      [
        "委",
        -10.004565911335716
      ],
      [
        "範",
        -10.004820980229535
      ],
      [
        "計算",
        -10.004940358177349
      ],
      [
        "負傷",
        -10.005390179964134
      ],
      [
        "強制",
        -10.00621289383676
      ],
      [
        "狙",
        -10.008139451080648
      ],
      [
        "ページ",
        -10.008534288614616
      ],
      [
        "犯罪",
        -10.009483180293383
      ],
      [
        "盗",
        -10.009511479908918
      ],
      [
        "公共",
        -10.009777445735644
      ],
      [
        "スタッフ",
        -10.010965922198308
      ],
      [
        "分割",
        -10.011080314585342
      ],
      [
        "尉",
        -10.011175931097997
      ],
      [
        "承認",
        -10.011273000138232
      ],
      [
        "致",
        -10.011394680322242
      ],
      [
        "予選",
        -10.012052953759358
      ],
      [
        "杯",
        -10.012056635718102
      ],
      [
        "律",
        -10.01247493249377
      ],
      [
        "込んで",
        -10.012618688531932
      ],
      [
        "稲",
        -10.012767525227895
      ],
      [
        "仲間",
        -10.01289792659623
      ],
      [
        "処分",
        -10.013617318911656
      ],
      [
        "カリフォルニア",
        -10.01374013784942
      ],
      [
        "ごろ",
        -10.013822095562526
      ],
      [
        "偽",
        -10.0143019355656
      ],
      [
        "緩",
        -10.015265752353878
      ],
      [
        "ell",
        -10.015281860806695
      ],
      [
        "競馬",
        -10.015619074103077
      ],
      [
        "拡張",
        -10.016622919969771
      ],
      [
        "鳴",
        -10.01735721432254
      ],
      [
        "op",
        -10.017561145701755
      ],
      [
        "阪",
        -10.01757796913406
      ],
      [
        "就任",
        -10.01881291780782
      ],
      [
        "鋼",
        -10.019695170884448
      ],
      [
        "進行",
        -10.020046053592186
      ],
      [
        "調整",
        -10.020620102067058
      ],
      [
        "ネットワーク",
        -10.020654393224143
      ],
      [
        "1984",
        -10.02087482369503
      ],
      [
        "通称",
        -10.02090834137794
      ],
      [
        "贈",
        -10.021229904625892
      ],
      [
        "祝",
        -10.02155330681958
      ],
      [
        "岳",
        -10.022766997395935
      ],
      [
        "チェン",
        -10.023167733062444
      ],
      [
        "適用",
        -10.02411563925764
      ],
      [
        "結合",
        -10.024228786460643
      ],
      [
        "斜",
        -10.024306456457836
      ],
      [
        "押",
        -10.024489369810851
      ],
      [
        "コーチ",
        -10.024887945769535
      ],
      [
        "賃",
        -10.02503650191491
      ],
      [
        "規制",
        -10.025217429038072
      ],
      [
        "ばかり",
        -10.02550493107215
      ],
      [
        "空気",
        -10.02612028169331
      ],
      [
        "RO",
        -10.027308872435537
      ],
      [
        "つまり",
        -10.02734478036396
      ],
      [
        "阪神",
        -10.027958279342196
      ],
      [
        "旅客",
        -10.028193541426448
      ],
      [
        "負け",
        -10.02826408311249
      ],
      [
        "発達",
        -10.029880066476682
      ],
      [
        "枝",
        -10.029998685688977
      ],
      [
        "大規模な",
        -10.030257233071596
      ],
      [
        "摂",
        -10.030324936660246
      ],
      [
        "価値",
        -10.030392171027726
      ],
      [
        "外交",
        -10.031949202084718
      ],
      [
        "コミック",
        -10.032396140070592
      ],
      [
        "現象",
        -10.032647784628129
      ],
      [
        "旅行",
        -10.032823228322686
      ],
      [
        "入団",
        -10.03295622509606
      ],
      [
        "と考えられる",
        -10.03434433236677
      ],
      [
        "飯",
        -10.03531349786964
      ],
      [
        "駆逐艦",
        -10.035313528157433
      ],
      [
        "学園",
        -10.036208697220522
      ],
      [
        "ine",
        -10.03622817780363
      ],
      [
        "]",
        -10.03654401484128
      ],
      [
        "金融",
        -10.037270605811177
      ],
      [
        "[",
        -10.038680504415652
      ],
      [
        "事態",
        -10.038809455471675
      ],
      [
        "基礎",
        -10.039693788343978
      ],
      [
        "抑え",
        -10.040952386642784
      ],
      [
        "自治",
        -10.041493179499607
      ],
      [
        "左右",
        -10.042536018146777
      ],
      [
        "削",
        -10.043664765774489
      ],
      [
        "となっており",
        -10.044368989624855
      ],
      [
        "晴",
        -10.044951928193472
      ],
      [
        "インディアン",
        -10.045038476571412
      ],
      [
        "側面",
        -10.045054685633538
      ],
      [
        "患者",
        -10.04559994922853
      ],
      [
        "ect",
        -10.045624771188722
      ],
      [
        "維",
        -10.04647123381365
      ],
      [
        "依頼",
        -10.047275358210536
      ],
      [
        "亀",
        -10.047355377053362
      ],
      [
        "ユニット",
        -10.047596253572667
      ],
      [
        "助け",
        -10.047699404907764
      ],
      [
        "指導者",
        -10.047712005324046
      ],
      [
        "了",
        -10.04971318909624
      ],
      [
        "当たり",
        -10.050692430222268
      ],
      [
        "メキシコ",
        -10.050763253649851
      ],
      [
        "遺跡",
        -10.0512245119701
      ],
      [
        "卒業後",
        -10.05166511091596
      ],
      [
        "tion",
        -10.051751091417405
      ],
      [
        "航空機",
        -10.051911293651145
      ],
      [
        "1972",
        -10.053271954356378
      ],
      [
        "執筆",
        -10.055855168912732
      ],
      [
        "騒",
        -10.05635731322758
      ],
      [
        "獣",
        -10.056441044283428
      ],
      [
        "鬼",
        -10.056776038633336
      ],
      [
        "携",
        -10.05711051920405
      ],
      [
        "守備",
        -10.057439402511733
      ],
      [
        "合計",
        -10.058976417131388
      ],
      [
        "インターネット",
        -10.059563753286854
      ],
      [
        "査",
        -10.060869947287792
      ],
      [
        "遇",
        -10.061477781056425
      ],
      [
        "伝説",
        -10.062429241749248
      ],
      [
        "練習",
        -10.063429839670755
      ],
      [
        "投資",
        -10.064122808752536
      ],
      [
        "膜",
        -10.064849754744683
      ],
      [
        "欲",
        -10.066032636889428
      ],
      [
        "およそ",
        -10.066627362821205
      ],
      [
        "ぞ",
        -10.06738599314791
      ],
      [
        "震",
        -10.068801495578285
      ],
      [
        "下げ",
        -10.069669956181388
      ],
      [
        "ワシントン",
        -10.070269031130405
      ],
      [
        "ブレーキ",
        -10.070431002258225
      ],
      [
        "×",
[...]
